#version: 0.2
Ġ t
h e
Ġ a
i n
Ġt he
e r
o n
Ġ ,
r e
Ġ s
e d
Ġ w
Ġ o
n d
a t
Ġ .
o r
e n
Ġ c
i t
Ġ f
i s
e s
a r
Ġ b
Ġo f
a n
Ġ in
a l
in g
Ġ p
a s
Ġa nd
Ġt o
i c
r o
Ġ m
Ġ d
Ġ h
i on
l e
o u
Ġ T
Ġ re
Ġ =
Ġ S
i l
Ġ A
en t
Ġ "
Ġ 1
Ġt h
s t
e l
Ġ C
Ġ l
Ġ @
o m
Ġ e
Ġ Ċ
a m
Ġ n
a d
a c
Ġw as
Ġ M
Ġ B
e c
Ġ on
ĠT he
l y
u r
Ġ '
e t
i d
o l
Ġ g
i m
Ġ I
- @
Ġ@ -@
Ġf or
i r
i g
i v
o t
t er
Ġ H
u t
Ġa s
u s
o w
it h
a y
Ġ 2
Ġ P
Ġs t
Ġ he
v er
at ion
Ġw ith
Ġb e
Ġ R
Ġth at
Ġ D
c e
u n
e m
Ġ W
Ġw h
Ġ F
c h
Ġb y
t h
Ġa l
Ġ )
Ġ (
Ġ L
u l
Ġ G
Ġ is
Ġc on
er s
Ġa t
c t
Ġ N
r a
o s
Ġ1 9
Ġa n
Ġ it
he r
ro m
a nd
u m
Ġ J
es t
0 0
Ġh is
Ġ E
a g
a v
a in
r i
o d
Ġf rom
Ġ O
is t
Ġc om
Ġ v
Ġp ro
o p
il l
o re
i f
l d
u p
Ġ r
e w
er e
re s
ig h
ĠI n
i es
Ġd e
b er
ar t
ar d
or t
Ġs e
ic h
Ġw ere
at e
al l
a k
an t
o c
u d
a p
q u
Ġe x
on g
a b
Ġc h
Ġo r
Ġ K
g h
e ar
es s
at ed
Ġp l
Ġs h
it y
i p
iv e
am e
Ġ U
Ġ â
Ġh ad
ec t
ac k
ĠS t
Ġâ Ģ
Ġs u
as t
s e
re d
Ġ k
g e
Ġwh ich
ou r
m ent
Ġ le
u nd
Ġa re
i an
o v
i al
Ġn ot
el l
Ġs p
o st
Ġ y
igh t
i a
or d
u st
ar y
in e
t her
p t
r it
Ġ 3
ou n
p p
ic al
ĠC h
av e
Ġ un
Ġ2 00
c c
Ġin c
f ter
ou ld
Ġ V
Ġb ut
ir st
is h
ou s
t e
f f
ion s
s o
Ġcom p
Ġ2 0
id e
Ġ ro
u re
Ġw he
Ġa r
u b
Ġcon t
i e
Ġ ;
o g
ig n
Ġf irst
Ġc l
w o
Ġhe r
r y
u e
Ġit s
as s
Ġthe ir
or m
ĠâĢ ĵ
o k
or k
Ġin t
Ġre s
ĠH e
Ġ :
at er
Ġal so
Ġa b
on d
Ġa d
om e
ou t
r an
m er
i re
he d
r u
Ġ us
ag e
d u
Ġ 4
im e
l ow
Ġp er
p er
Ġwh o
Ġ 5
ĠT h
Ġon e
Ġh ave
Ġs c
p l
al ly
ow n
i le
Ġre c
t ed
Ġ1 8
. @
Ġ@ .@
Ġt wo
it ion
u gh
i z
re e
en ce
ur ing
t s
p ort
Ġbe en
Ġp art
Ġb ec
ic e
Ġh as
Ġa g
ĠA l
Ġa pp
Ġ20 1
, @
Ġ@ ,@
ou gh
Ġ j
Ġ en
Ġd is
l ud
k e
Ġo ver
Ġs er
Ġth is
or y
el y
Ġy ear
ation s
em ber
re n
ct ion
ou nd
ac h
Ġof f
Ġa fter
r ic
Ġ up
l and
Ġd es
ac e
Ġpl ay
ĠI t
ar k
o ver
an ce
Ġo ut
Ġthe y
Ġm an
ad e
Ġt e
ac t
Ġo ther
i b
m an
ul t
Ġ im
Ġ Y
p h
res s
Ġinc lud
c ed
en s
ur n
w n
Ġw ould
in d
Ġt ime
on e
Ġint o
Ġp re
v el
ĠO n
ĠU n
w ard
w e
Ġw e
Ġh im
it e
o in
at es
Ġ 6
Ġs he
l es
Ġe v
Ġat t
il m
as ed
Ġn e
it ed
ab le
e nd
i ed
as e
am p
Ġcom m
or s
Ġin ter
a re
ro ugh
o y
on s
oun t
e p
f orm
Ġal l
os e
o od
an g
Ġm ore
c es
Ġw ork
Ġ 7
a il
ol d
a w
er ed
ing s
v e
ĠA n
il d
Ġn ew
Ġs ec
Ġb et
Ġwhe n
in al
Ġf e
Ġf ilm
ic k
v i
ent s
ĠS e
at t
w ay
f t
is s
a us
Ġ 8
f er
g an
ĠM ar
re at
Ġcon s
ri b
ĠA r
ro und
ak e
Ġre m
v ed
Ġt r
Ġd ec
as on
an s
Ġd uring
or th
Ġ und
Ġ 9
ub l
h ip
Ġag ain
ĠA s
Ġm ost
Ġg ame
ot h
Ġthe m
Ġ19 9
Ġon ly
Ġp r
we en
at h
i x
Ġe ar
ol low
Ġth an
o b
ro p
Ġs up
ation al
ĠN ew
f ore
Ġab out
Ġpro du
u g
Ġc ent
ter n
Ġk n
Ġre t
e y
Ġch ar
Ġs ong
Ġc an
ou th
Ġbet ween
Ġl ater
or n
Ġre le
Ġund er
ic t
Ġth ree
t on
h n
r on
Ġc ol
Ġa ct
Ġ 00
al s
Ġ qu
Ġth rough
ĠE n
or ld
o ok
Ġn um
Ġs o
Ġm e
Ġa cc
Ġre l
Ġwh ile
Ġ ra
Ġe nd
mer ic
ĠA meric
le ct
Ġf l
ĠL e
ter s
oc k
r al
Ġp os
Ġsu b
e ver
Ġas s
ul ar
at ing
Ġwhe re
Ġ ver
Ġd ay
c k
Ġre g
Ġsec ond
ĠC om
a id
en er
Ġb u
is ion
Ġm ade
am es
iv ed
ĠR e
Ġp e
he s
Ġrec ord
s on
Ġde f
b um
Ġf our
Ġg ro
Ġf ollow
Ġse ason
Ġ00 0
Ġe p
Ġfor m
Ġs ome
Ġsu ch
Ġa m
o ol
is hed
Ġm ov
Ġbe fore
Ġt ra
ĠS p
Ġm us
Ġthe re
Ġw rit
he n
ic s
i o
ĠJ o
Ġsp ec
i el
Ġ1 0
i ke
Ġs y
Ġyear s
Ġte am
ĠA t
od e
u al
ĠTh is
Ġ /
id ent
Ġl ar
ĠS h
Ġal bum
Ġin d
ro s
il y
ow ever
Ġ ent
n ing
Ġus ed
an k
Ġc all
Ġs ur
if ic
Ġa c
Ġh igh
ur y
Ġp ubl
Ġbe ing
Ġep is
ain ed
Ġthe n
l ed
t en
a j
vel op
Ġl oc
Ġd o
Ġex p
if e
r is
Ġagain st
Ġ1 7
Ġin v
Ġ 0
Ġb l
Ġp res
Ġnum ber
ot her
ĠA fter
Ġsh ow
Ġchar ac
i ous
Ġse ver
Ġad d
Ġc o
e k
Ġs et
in ce
j ect
ĠB rit
ar s
Ġbec ame
Ġre ce
aus e
Ġper form
Ġle ad
Ġinclud ing
in es
Ġn o
ĠâĢ Ķ
Ġs ing
at her
in s
ran s
ĠUn ited
Ġf ound
a ir
Ġw ell
Ġm on
Ġre p
ĠS c
al e
Ġp ol
Ġb ack
Ġb oth
Ġc ap
i er
Ġ19 8
Ġ1 5
Ġser ies
Ġ1 2
o ber
r am
i k
Ġsh ip
ĠC on
ow er
em ent
it s
er t
u res
i red
le y
ĠW h
ĠS he
iv ers
Ġm ain
Ġ19 4
p en
Ġm in
i et
d er
over n
Ġd id
v en
ol og
Ġg o
el f
Ġc re
Ġim p
Ġde velop
a z
Ġm et
it ies
iv er
ĠEn g
Ġl ong
an y
l l
is ed
er m
t ing
u ch
a red
Ġe m
an n
an e
Ġm ill
ir d
f ul
ĠJo hn
Ġm at
Ġa ir
Ġepis ode
te nd
ire ct
Ġs aid
Ġst ud
Ġman y
ut e
Ġb ro
Ġde p
Ġc ar
at ive
as h
Ġc ould
Ġ1 6
Ġw ar
Ġor ig
Ġcont in
ĠC l
Ġsever al
ĠAmeric an
th ough
ĠI nd
Ġd if
iel d
a h
Ġp op
Ġin st
ou se
is e
em b
Ġkn own
Ġ19 7
ĠA ust
t y
u ally
Ġ19 6
Ġ1 1
Ġcon c
t il
i am
ĠW ar
vi ew
ers on
Ġo b
ĠG er
u ed
Ġs m
Ġret urn
Ġbe gan
Ġ Z
Ġan y
Ġcomp le
Ġdes ign
er n
ĠD e
Ġdes c
Ġs ign
ros s
op le
ch ool
m y
Ġ est
is m
o ot
Ġt rans
cc ess
Ġpro v
ak ing
Ġfe at
ĠB l
id ed
Ġin f
an c
Ġr un
Ġear ly
Ġar t
iz ed
Ġd ist
Ġn ear
Ġmus ic
Ġo wn
Ġrele ased
Ġun til
Ġcall ed
ĠC ol
Ġe ff
ĠU S
im es
ist s
r id
un e
Ġres p
Ġb el
en n
Ġp ass
u red
st em
Ġf in
ĠM ay
ial ly
Ġd own
Ġp h
ut ion
Ġdis c
ment s
Ġc rit
x t
os ed
Ġd irect
Ġg ener
Ġal ong
Ġin s
i um
Ġmill ion
ĠBrit ish
g er
ul l
a x
ĠGer man
Ġgro up
Ġoff ic
v ent
Ġ1 3
Ġf am
e b
Ġthe se
aj or
Ġm od
Ġm ay
Ġ $
ce pt
Ġo pen
ĠA d
Ġm il
an ge
ĠB e
Ġp oin
u c
Ġl and
g g
Ġhis t
ĠA ug
Ġg overn
Ġs im
ĠSe pt
Ã ©
Ġsu ccess
ĠSept ember
ĠAug ust
et s
Ġo per
ĠW orld
er v
Ġatt ack
Ġg u
ib le
ĠA p
ĠSt ates
in k
Ġc ount
Ġus e
Ġs ame
ward s
y s
Ġdesc rib
Ġpe ople
ac ed
ĠF or
ĠI s
am ed
y p
Ġcharac ter
ĠAl l
Ġbec ause
el s
Ġ1 4
Ġv i
Ġl ike
Ġser v
ĠJ u
ĠF ran
Ġa round
g ed
Ġst art
Ġth ough
Ġ ed
Ġk m
ĠP l
Ġ19 5
Ġ Q
n er
Ġw in
ĠAust ral
Ġcon st
u es
r ing
Ġto ok
ru ct
Ġo cc
Ġb att
av ing
ĠO ct
Ġan n
Ġsup port
ĠN ov
ov e
Ġn orth
Ġfollow ing
Ġs ix
Ġe le
ĠC ar
Ġ19 3
ĠH owever
Ġsy stem
us s
Ġapp ear
Ġf inal
Ġcl ass
Ġrece ived
Ġhe ad
in ed
ĠOct ober
iv es
Ġp rom
Ġcons id
en e
ant s
r ad
l ing
il ity
ical ly
ĠD ec
ĠP ro
Ġ19 1
Ġst ate
Ġe ver
Ġbu ild
Ġe ach
re t
an u
Ġex t
Ġf ive
r ist
Ġa ut
ro l
Ġcent ury
ĠY ork
in a
Ġb o
Ġare a
Ġv ar
ĠThe y
Ġsm all
at ely
Ġw ill
os s
ĠN orth
Ġpart ic
g et
Ġl ife
iv ing
Ġre port
r il
ĠM e
Ġ ]
Ġ [
t le
ore d
ian s
ĠJ une
ĠB y
Ġc ity
ord ing
p ed
g in
Ġm ar
Ġm ajor
Ġpubl ic
Ġwe ek
ĠK ing
iss ion
ĠJu ly
Ġ %
Ġcon f
ect ion
Ġb and
ĠH ar
Ġre f
m ed
ĠNov ember
ur ch
in c
ĠCom m
Ġre st
ĠP h
ĠW ill
Ġs ince
Ġw orld
Ġm ed
es p
ra ft
Ġsing le
ra ph
p or
ĠAp ril
b le
ain s
ĠM c
ri ed
Ġd et
om et
l ish
ĠMar ch
Ġj ust
ect ed
Ġl ast
ĠE d
ur al
ion al
he st
a im
c l
Ġt urn
iv ely
Ġp o
il t
Ġhe l
i ent
Ġal low
Ġ3 0
ĠC an
vi ous
ĠG e
Ġle ft
Ġlar ge
at s
Ġl ine
ĠS outh
Ġdif fer
al es
Ġc are
Ġs outh
Ġad v
if ied
ĠD uring
Ġst r
Ġd r
em pt
Ġb ook
Ġver s
Ġs l
Ġs chool
av y
ĠDec ember
Ġth ird
ag ue
Ġinc re
Ġ2 5
Ġmon th
Ġd ue
Ġapp ro
Ġplay ed
. .
Ġm uch
Ġev ent
ro w
Ġ if
Ġan other
ĠJ anu
ro te
ĠJanu ary
ĠP r
Ġinclud ed
Ġ19 2
Ġwh at
Ġpl ace
Ġb ased
n e
Ġsh ort
ĠI I
Ġgovern ment
on y
b all
ap an
Ġex pl
Ġp erson
Ġw rote
Ġtr ack
ĠW hen
Ġc amp
Ġt it
Ġo ld
al f
Ġp ort
Ġb re
ĠE u
Ġde ath
Ġn ame
ent ly
ĠJ apan
Ġe lect
p le
ren t
Ġ. ..
Ġen g
Ġw on
b y
i ence
ĠO r
Ġpro t
Ġch ild
Ġl it
o ad
Ġk ill
Ġpro g
ide o
Ġp ower
ag es
Ġst ory
ĠT e
ĠB ro
Ġre view
it al
od y
Ġv is
Ġh ome
ot t
Ġl ed
p s
Ġg un
Ġre qu
Ġdescrib ed
Ġpre vious
en g
om an
Ġfam ily
y l
ra nd
t ain
Ġw ay
Ġn amed
Ġn ow
Ġr ight
ĠM us
Ġd em
ur ther
i od
iv en
Ġm en
Ġev en
emb ers
il ar
ĠG u
Ġor gan
Ġm ake
re en
on t
is ter
c y
ivers ity
Ġatt empt
om in
iv ision
it ions
Ġb est
Ġc our
Ġ1 00
Ġre pl
ren ch
Ġ Â
Ġo pp
Ġle g
i or
Ġg ames
ac hed
Ġcomm and
Ġt erm
Ġh and
ĠA nd
iv al
ĠF l
m p
Ġpos s
Ġd am
Ġbel ie
Ġver y
o x
ĠH is
Ġth ose
ĠF eb
ĠEu rop
Ġp ar
ĠFeb ru
ĠFebru ary
s h
Ġis s
Ġst ill
Ġne xt
Ġto p
Ġspec ies
ĠCh rist
Ġeff ect
c hed
ri end
Ġvi ew
ĠThe re
ĠN ational
oc i
ak en
Ġorig inal
Ġsp e
ĠW e
en ces
at ure
l u
Ġw ater
n ess
Ġj oin
Ġadd ition
ĠEurop e
a u
Ġl ist
ĠB ar
Ġwith in
Ġper iod
et er
al k
Ġm embers
Ġbu ilt
ĠF rench
Ġm ark
Ġhe ld
Ġde b
ĠA m
Ġex per
h or
Ġ201 0
a f
Ġal though
Ġmat ch
Ġl ate
Ġfor mer
Ġrele ase
ĠP ar
re w
Ġg reat
rid ge
a ugh
Ġd est
Ġs old
Ġc ur
n ey
ut ed
tend ed
Ġv ideo
Ġ2 1
ard s
Ġc aus
Ġst orm
rop ical
ĠW est
l ine
v es
Ġc over
ec h
Ġt ri
Ġin it
Ġro le
Ġ X
ĠWill iam
s elf
Ġc ame
Ġest ab
Ġday s
he l
an ces
ĠH er
Ġres ult
Ġm id
o on
Ġpres ent
n a
le v
ag ed
Ġcont rol
ul ation
pt ion
Ġpol it
Ġst and
Ġre al
Ġh owever
it ary
h am
ĠM an
ĠM in
as ter
Ġ200 8
Ġpro p
le t
Ġw ind
en se
id es
Ġf ew
at ic
Ġ200 9
Ġ2 4
Ġto wn
ĠGe or
om b
Ġs ide
Ġy ou
og raph
Ġt w
Ġs k
Ġcontin ued
Ġp ost
Ġe qu
Ġof ten
ay s
ĠE ar
Ġloc al
Ġ201 1
el t
ĠCh ar
at or
ĠA ir
Ġam ong
ru ction
Ġsim ilar
c hes
ĠM ich
e ad
r act
ĠN o
Ġh um
Ġa v
Ġcl aim
es tern
un g
om en
es e
ĠEng land
re et
Ġ &
re ad
op s
ak es
l er
olog y
s ide
Ġdiffer ent
Ġd el
Ġbe h
Ġm y
ĠR ec
p ar
Ġf urther
Ġ2 2
Ġs ent
Ġt yp
es c
ot s
est ed
ur s
Ġle vel
Ġf re
ĠD av
er y
Ġconsid ered
Ġt ake
Ġl aw
t al
ĠE l
Ġ200 7
Ġcare er
g y
ĠOn e
Ġprodu ction
m e
Ġh alf
ar m
ĠP ark
ĠC o
ic es
amp ions
ĠC ity
Ġh aving
Ġan t
b o
ĠA cc
ĠEng lish
Ġe ast
Ġro ad
Ġm ag
Ġmov ed
Ġd ra
Ġw est
er ing
Ġever y
Ġwith out
ĠAl though
Ġc r
ro du
ĠC ent
Ġpos ition
Ġ201 2
Ġapp e
Ġpl an
Ġt ro
in ing
Ġplay er
ron t
Ġar r
ĠAn g
Ġhist ory
Ġc or
Ġbec ome
on es
ver s
ĠC al
Ġvers ion
Ġar m
ĠC ount
f ord
ond on
Ġc ast
Ġ el
Ġinf lu
Ġ2 3
iz e
ĠL ondon
ĠB att
y le
Ġh ouse
r ig
Ġf ore
Ġcomm un
Ġs ound
res ent
ir c
ap p
ro y
a ul
at ter
Ġinv ol
Ġstr ong
Ġg r
Ġsu gg
a i
Ġcl ub
Ġwrit ten
Ġ19 0
ain ing
Ġb as
ĠW ith
Ġst at
re st
oun g
Ġl ess
Ġann oun
ĠR iver
ut es
Ġf oot
i qu
Ġor der
al d
im ent
Ġre fer
iet y
Ġt em
g es
c raft
a e
Ġpro f
ĠCan ad
se qu
Ġa ff
Ġpoin t
Ġg iven
Ġr ad
Ġl ow
ĠG ener
Ġtr ad
Ġh ig
ĠUn iversity
Ġw ant
il le
Ġg ave
Ġk e
Ġp at
is c
u ck
Ġdef e
Ġim port
Ġne ver
a ff
ĠWh ile
ĠP ol
Ġch ang
Ġreturn ed
or ies
r ation
Ġs oc
Ġto tal
Ġv ict
ĠA b
ĠH igh
Ġf act
Ġf ire
Ġg ood
ent ion
Ġcom b
ĠT r
Ġcomp any
Ġcount ry
Ġw ent
ail ed
is on
s p
c ess
our s
Ġf riend
Ġcap t
ric k
ĠE x
a un
Ġpubl ished
Ġprodu ced
ay ing
Ġf ind
lev ision
Ġreport ed
c on
Ġorig in
Ġ200 6
ĠS m
Ġl ost
a ign
Ġst ated
Ġcomm on
Ġprog ram
Ġl ight
ing ton
Ġor d
y n
Ġpartic ular
ap e
ec hn
Ġad m
Ġinclud e
est s
ĠAcc ording
Ġlar g
ab ly
Ġ er
ur ric
ĠSt e
us ed
Ġcomp et
Ġfor ces
Ġrecord ed
ie f
Ġbuild ing
Ġp ress
Ġne ed
Ġb us
Ġpro ject
Ġn ort
ĠN e
h ing
um ent
Ġship s
Ġ2 7
Ġsh ould
Ġus ing
Ġe ight
Ġ5 0
os p
Ġ2 8
Ġperform ance
in ess
pl oy
Ġserv ice
ĠThe se
b s
ĠS w
Ġpop ular
Ġ ide
Ġt imes
Ġm aking
Ġt en
Ġair craft
oy al
Ġmil itary
ĠAustral ia
Ġhim self
Ġ201 3
at ch
Ġaut hor
Ġf un
Ġf ather
Ġbatt le
ampions hip
ĠS ec
le ar
n ed
Ġan im
ĠJ ack
Ġs it
Ġl im
ĠAs s
ĠA f
Ġsong s
Ġs omet
ou ther
Ġre ad
ens ive
it her
Ġcrit ic
ord s
Ġdevelop ment
ĠGener al
Ġs w
Ġ4 0
Ġh ow
al th
Ġg l
qu ad
ed er
et h
it ive
ĠSt ate
Ġ2 6
Ġs ol
as es
ĠC or
ol l
Ġc ross
outher n
am b
ĠJ ames
c er
Ġ18 9
Ġg round
Ġrep resent
ĠS y
Ġdest roy
Ġf t
ac y
Ġst ar
Ġst e
Ġrem ained
as tern
ĠAr my
k s
ri e
Ġn ational
Ġcharac ters
Ġg et
ri es
ĠP res
Ġsu ff
w ork
Ġmonth s
ĠB o
ĠCom p
a ur
Ġg en
Ġd ied
Ġt er
ubl ic
ĠG l
Ġdevelop ed
Ġtit le
d om
Ġs um
Ġfor ce
re am
f ic
Ġch art
Ġcamp aign
urric ane
ĠLe ague
Ġchild ren
land s
Ġint rodu
en cy
Ġp ra
Ġto ur
Ġprom ot
it ted
ist ed
Ġsign ific
Ġac ross
a el
ress ion
Ġs on
Ġre d
her n
Ġa way
ĠD ivision
Ġob s
Ġrel ations
Ġhist or
Ġoffic ial
Ġf ield
Ġf av
Ġf elt
o le
ĠAmeric a
le ge
Ġn ight
Ġf ac
Ġnot ed
ĠS im
al t
Ġre ached
ĠR uss
m ost
Ġannoun ced
ĠS up
Ġinter n
ĠJapan ese
ĠCount y
Ġare as
Ġcre ated
ĠR ep
c om
Ġc oun
ĠM on
ĠR oad
Ġte levision
Ġ200 5
ress ed
Ġsuccess ful
Ġst ation
ĠM ad
he m
Ġro ck
ĠRe g
im ately
Ġb ar
Ġv al
ĠSt reet
is ing
ĠG r
Ġvar ious
ĠâĢ Ļ
Ġ2 9
Ġpolit ical
Ġse en
Ġfollow ed
f ield
Ġa ver
Ġto o
i ber
iz ation
it ing
Ġr ank
ĠE ast
c ast
Ġser ved
et t
Ġperform ed
op e
ĠR ober
Ġc ult
re g
Ġplay ers
Ġ201 4
Ġcon d
Ġpr im
Ġre v
Ġf ull
in ation
Ġdec l
ĠGeor ge
al ity
Ġbe gin
Ġf le
Ġbl ack
du ct
Ġcon v
ell ing
Ġp ut
Ġc irc
ĠS er
ĠP er
Ġear l
ĠPh il
ĠT o
ol ution
Ġc ost
ab or
ĠH en
Ġse e
Ġd iv
id ence
Ġpro cess
Ġn on
Ġst yle
y ing
Ġl ook
Ġkill ed
Ġc y
Ġv ol
Ġse ven
Ġa ud
ĠE m
ric t
Ġt ropical
Ġhel p
l ished
Ġle t
pl ay
Ġthrough out
Ġt aken
ĠB ill
Ġf ight
Ġab le
an a
Ġdisc over
Ġag re
ec ut
ur g
Ġw id
Ġlit tle
Ġsignific ant
ert ain
Ġbec om
Ġa ge
Ġh it
ĠS ch
Ġf em
Ġ ident
Ġme et
way s
ĠTh om
ĠAustral ian
Ġt echn
Ġspec ial
ir l
Ġst ruct
o ice
Ġf ront
Ġwrit ing
Ġc op
Ġthough t
Ġm m
Ġbro ad
Ġestab lished
en ced
av al
ĠA ct
ĠDav id
i us
ĠP art
Ġappe ared
ĠM or
Ġent ire
Ġcol l
Ġdo es
ep end
Ġmil es
c il
Ġy oung
Ġ !
Ġco ast
ĠR ich
Ġpoin ts
Ġb ody
Ġa ward
l ess
Ġro ute
od es
Ġimp ro
ough t
Ġm ember
ri pt
g round
ĠM ed
iv il
Ġr ange
Ġact iv
as k
ir on
st er
Ġw omen
i ers
ĠP e
Ġstart ed
Ġcaus ed
ĠY ou
Ġdec ided
in t
ble m
lect ed
ĠAf ric
Ġfeat ures
Ġp ain
d ay
Ġgener al
ĠQ u
at ors
Ġevent ually
i ec
m en
um b
op h
con om
ĠR oyal
Ġar ch
og n
u k
Ġr ace
d en
Ġv ot
it ar
he re
Ġfe et
Ġgro w
Ġman ag
pp ed
ĠH ist
us h
ber t
Ġadd ed
ris on
Ġt re
Ġh old
Ġc ut
Ġto get
Ġtoget her
Ġ18 8
ĠH ouse
Ġform ed
iv id
Ġloc ated
Ġon ce
Ġwh ite
Ġst ri
ree k
am ent
amp le
Ġn ov
Ġar g
Ġmod ern
ur b
Ġcon n
Ġen c
o ff
ĠBl ack
d le
ĠP ort
Ġinst ead
he ad
Ġro und
rough t
Ġ3 1
ac es
Ġ esc
ar a
em y
Ġb all
ĠIn tern
Ġm ix
Ġimport ant
Ġcre w
c ing
Ġp ri
Ġs aw
e e
Ġa ction
Ġcomple ted
ĠIt al
Ġre du
ĠInd ian
id s
ect s
Ġplay ing
r ated
ĠO ther
c ent
one y
ell s
Ġ200 4
Ġb ase
Ġpop ulation
at a
Ġsur v
Ġins p
Ġm ater
Ġm ot
ĠM y
Ġst age
ĠMich ael
Ġv oc
Ġgun s
Ġr ather
Ġas k
Ġocc ur
Ġbeh ind
Ġopen ed
Ġother s
Ġ18 6
Ġf all
Ġre n
r ay
as ing
ce ed
Ġbro ther
wo od
ign ed
em ents
Ġcom ment
Ġl ik
l in
st it
Ġb orn
Ġs ite
Ġ201 5
Ġf if
Ġwork s
Ġl oss
Ġb omb
Ġl ive
Ġhe avy
ĠFran ce
Ġwork ed
fic ult
Ġm iss
Ã ¡
Ġp red
Ġsub sequ
med i
Ġl ack
ĠS chool
ra p
nd er
Ġcl ose
Ġpro blem
Ġpart y
Ġdif ficult
le ction
Ġconst ruction
ĠS ome
ĠW ash
ĠS an
Ġkn ow
ĠN or
Ġh ost
ar ch
Ġweek s
ist ic
Ġrelations hip
Ġorigin ally
Ġse par
Ġass oci
Ġre b
c o
Ġup on
Ġpr act
Ġapp oin
Ġlead ing
Ġpe ak
Ġv ill
Ġacc om
ĠHen ry
Ġal most
Ġdam age
ort s
Ġm er
Ġin j
l ic
ĠRober t
ĠA le
un k
Ġfour th
Ġ200 0
os ition
Ġsc ored
ĠBatt le
Ġin form
ap s
Ġre ve
ĠSt ar
Ġprov ided
Ġc ase
ĠMus ic
Ġm i
ĠB est
m ing
Ġcl os
bo ard
Ġeng ine
Ġinv est
Ġgo al
Ġac cept
ĠV ir
Ġc reat
ic a
Ġsc ene
ĠR ed
or ing
ĠD esp
Ġhum an
ell ow
in o
ĠR ou
u le
olog ical
ang u
Ġb rought
Ġ5 00
a ut
Ġf ree
Ġind ivid
Ġ18 7
ĠP aul
Ġfeat ured
ul a
Ġle ast
Ġk ing
Ġm other
Ġl aun
Ġallow ed
Ġwork ing
ĠPres ident
am a
Ġres ul
ĠM il
Ġto wards
ĠC ap
Ġaver age
Ġreg ion
Ġwant ed
Ġm ult
Ġtro ops
Ġind ust
Ġtrad ition
Ġbus iness
av es
ĠA g
ĠH ol
ĠWash ington
id ing
Ġpl aced
az ine
ĠQ ue
Ġqu ick
Ġv e
Ġc e
Ġe ither
v ing
Ġresp ect
Ġcrit ics
ĠB el
Ġoff ice
Ġh on
Ġav ail
k y
Ġre ach
Ġrun s
Ġex ample
ant ic
Ġprof ess
Ġmater ial
Ġrec ogn
Ġe conom
Ġ Ã
Ġf ar
g o
en ed
Ġw ife
Ġest im
t o
Ġar my
Ġne g
z e
ear ch
ch ie
ent ial
Ġf oc
ĠDesp ite
r ight
Ġ200 3
ĠF ollow
Ġse x
ĠC our
quad ron
Ġinter est
Ġs our
eng th
Ġjoin ed
Ġm ass
Ġra il
Ġd ou
Ġgener ally
ĠAng el
ĠH ill
en es
ĠH am
Ġpro per
Ġcur rent
u ff
Ġde v
ĠH all
our n
Ġev ents
Ġbelie ved
ĠG ame
Ġpartic ip
ĠC up
Ġ3 5
o f
it ch
Ġf ig
ĠFollow ing
ĠK e
v ille
ĠF irst
b e
re y
Ġb ill
ĠM ary
Ġrepl aced
ĠD r
Ġ z
Ġm ph
ĠG reat
Ġr ul
Ġvict ory
art ment
Ġdesign ed
ĠL ou
Ġg rad
Ġis land
ĠJ e
ict ion
s c
Ġso on
Ġn omin
x ic
it te
ĠL a
ĠG ro
o or
ĠM al
Ġf und
Ġh ours
er ous
ĠT wo
Ġem ploy
ific ation
Ġinvol ved
ĠEurope an
Ġpres ident
Ġro om
u el
al ed
ĠCh ampionship
Ġsur f
Ġst ru
ap er
v al
Ġfin ished
in f
mer c
as ion
w est
in ist
if f
em or
ĠM art
Ġbre ak
in n
ĠR oman
ĠPl ay
Ġh or
Ġsh ot
Ġcour t
ra in
Ġs aying
a ren
Ġth reat
ar n
Ġopen ing
ĠD an
Ġsc ore
ĠB er
Ġreg ular
ĠRou te
Ġdes p
ĠM et
Ġdirect or
ad es
Ġl ength
B C
ĠD on
c her
le g
Ġind ic
Ġh om
Ġlarg est
ĠM ac
ĠSc ott
Ġcon duct
Ġ ill
ou l
Ġhigh way
Ġcont rib
ant ry
Ġposs ible
Ġtra vel
Ġs outhern
n ow
ecut ive
Ġd ro
k i
ud e
ish ing
Ġmin utes
ip p
ĠC ro
Ġrem ov
Ġh y
ĠV al
ĠF rom
Ġhig hest
ic le
Ġearl ier
Ġt est
Ġ200 1
Ġinit ially
Ġl y
Ġavail able
ag o
ĠS ing
ann ed
ĠAt l
Ġparticular ly
Ġper cent
and er
Ġh ard
Ġtra ining
Ġse qu
ĠW il
ĠRep ublic
Ġfor ced
p ly
Ġex ist
ĠM id
ĠN avy
Ġm ust
h ib
ĠChar les
ĠKing dom
ĠM ag
ograph y
as y
ĠÂ °
ri an
ĠMc C
Ġp ark
ĠB ut
Ġresp ons
ĠO ff
b or
ate g
Ġend ed
Ġw all
r ac
Ġqu ar
Ġturn ed
Ġex c
ĠThom as
ĠIntern ational
em s
Ġstud io
ut ure
Ġsoc ial
ĠP al
ĠD ep
ra g
Ġch ange
if orn
ĠCh urch
i os
ĠR es
he ast
Ġl angu
ĠWh ite
Ġpra ised
Ġpass ed
Ġnort hern
Ġsup er
Ġpr iv
Ġp iec
Ġincre ased
at ural
Ġob ject
ĠVir gin
r up
Ġh urricane
Ġ200 2
Ġreg ard
Ġed uc
ĠBro wn
Ġcent ral
Ġke ep
ight s
Ġph ys
it or
Ġun its
Ġrel ig
Ġnov el
Ġappear ance
Ġspe ed
ĠCanad a
s el
re m
ĠS l
Ġp ast
ĠCal iforn
ĠM er
ers hip
ĠR ock
ĠS en
Ġst op
ke y
end ed
Ġim medi
Ġc ou
Ġch urch
ĠB ay
Ġord ered
oc r
Ġdis p
u ter
Ġsy m
ĠSm ith
st on
ĠM o
Ġme as
iqu e
augh ter
Ġt reat
fer ence
Ġt aking
ry ing
ĠS am
ĠRich ard
itte e
Ġmov e
Ġind epend
Ġsign ed
ĠAle x
Ġl ove
il ities
Ġa chie
ĠCaliforn ia
Ġbet ter
et work
Ġp ers
ĠUn ion
it z
um p
ak er
Ġwind s
ĠG overn
Ġa p
ec ess
ar ily
ĠG od
Ġin n
n el
ĠIs land
Ġw at
Ġen ough
Ġcom merc
Ġpos itive
ĠCour t
ear s
Ġh ous
um e
Ġacc ording
ank s
ell ed
Ġsp ent
Ġab ove
Ġs low
Ġgo ing
Ġp ot
Ġout side
ĠV ict
ĠB ra
ĠT om
Ġfilm s
ĠM ill
m a
u ation
ap t
ĠA ward
Ġto ld
ĠU p
Ġfe el
ber g
ĠC ong
Ġfoot ball
Ġc lear
Ġprevious ly
qu are
Ġst ates
Ġ199 0
ĠA c
Ġ6 0
Ġme an
and ing
Ġn ine
Ġqu est
ĠComp any
Ġrecord ing
ĠAss oci
al ion
Ġp ur
Ġsub ject
at in
he t
us ion
ĠAr t
Ġf ailed
ren g
Ġass ist
Ġe y
Ġrequ ired
Ġcom e
ow s
os ing
Ġ4 5
Ġpro b
Ġele ments
ĠGerman y
v an
id a
Ġc ru
ĠSt ud
Ġl ower
ĠM ark
ĠInd ia
Ġreview s
Ġinter view
ed y
Ġpart s
Ġph ot
ĠG old
Ġits elf
ĠP eter
s hip
Ġn ar
Ġth ink
ĠChrist ian
n es
Ġs il
ran ch
Ġdirect ed
ĠN Y
Ġab s
is l
ib ility
Ġdesp ite
Ġ esp
Ġf low
Ġc red
Ġcont ract
am er
Ġ18 5
ok e
ĠTh at
Ġdeb ut
ĠP at
ĠÂ £
Ġ ?
ĠT imes
read y
er ved
Ġacc ess
Ġbegin ning
le b
Ġgroup s
on na
o id
ĠCol lege
ĠC ast
Ġs ection
Ġb i
Ġvi ol
ab ility
ĠU K
hest er
Ġwh ose
ĠS ov
ĠB r
as ons
Ġclaim ed
Ġl ines
Ġtrans fer
ĠW estern
Ġpre vent
Ġintern ational
Ġask ed
Ġst reng
ĠD em
Ġsc reen
m ar
Ġc he
air s
Ġg ive
on se
rie f
Ġbe g
Ġk ey
ĠMe xic
ĠSov iet
ĠD o
Ġun c
ĠSp an
Ġaddition al
ĠF ilm
Ġf uture
ĠFran k
Ġfor t
Ġwh om
ĠG rand
Ġle ague
Ġo p
ĠB en
Ġpo or
Ġg old
ĠA wards
ly ing
Ġd on
on st
Ġintrodu ced
Ġpre m
Ġse a
Ġev idence
it es
Ġquick ly
Ġide a
e x
Ġc al
Ġcent er
Ġal ready
Ġ3 2
ĠFor ce
Ġb ridge
ĠS oc
at ory
ec k
Ġfre qu
us p
ĠM ost
Ġem b
Ġocc up
Ġele ction
Ġ197 0
Ġprodu ct
Ġex cept
Ġcy cl
e um
ĠC oun
b ack
e al
Ġp il
Ġde al
Ġp en
Ġarr ived
ir th
Ġbl ock
ec ially
Ġw estern
Ġ198 0
Ġc ivil
ar ing
ĠBrit ain
ĠR ob
Ġus ually
Ġrad io
Ġmus ical
un t
ĠO ver
ul ly
ĠD ay
l iam
er gy
ĠI m
ĠP ac
Ġsomet imes
Ġfem ale
Ġdec ision
Ġresp onse
Ġf ood
Ġstud y
Ġmag azine
ĠL ater
Ġm oney
ĠVict or
Ġesp ecially
ĠH ot
Ġiss ue
ĠB ur
as c
Ġl ab
ĠT ra
Ġfl ood
Ġ -
liam ent
Ġlit er
Ġsurf ace
Ġen v
g en
Ġcar ried
r ack
Ġm ight
Ġestim ated
ĠR h
Ġgu itar
Ġcommun ity
en a
ain t
Ġconst ruct
ĠCh ic
it er
Ġshow s
Ġrem ain
Ġdefe ated
Ġar ran
Ġe astern
ig an
Ġ199 9
Ġrem aining
ar ies
Ġmin or
ĠEar ly
Ġdet erm
in ent
ĠM ount
Ġw ood
h a
ra w
Ġappro x
ess ion
Ġlar ger
Ġra p
ul f
Ġbecom ing
ĠVirgin ia
ĠIn f
Ġcomple te
Ġpol ice
Ġ3 6
ra b
r or
por ary
Ġsh oot
Ġ8 0
Ġteam s
Ġent ered
Ġmed ia
Ġsugg ested
Ġpress ure
ric s
Ġl atter
N A
ĠL os
Ġcommerc ial
ĠJ ust
and s
er ve
Ġan al
Ġinvest ig
Ġsur round
Ġd oc
Ġl o
Ġconsid er
Ġmark et
Ġb rief
Ġconc ern
is es
ĠSec ond
Ġstud ents
Ġb ur
Ġperson al
in ct
Ġpr ison
eder al
ĠI f
ĠTe x
ĠF le
Ġac qu
Ġdisc uss
Ġc ertain
Ġcomple t
all ed
Ġappoin ted
Ġeffect s
ĠJack son
Ġpri or
Ġd er
Ġsum mer
Ġh op
Ġs at
ch ange
ĠCon t
inc ip
Ġepis odes
Ġt ar
Ġr iver
ĠFl or
Ġst aff
ent h
Ġe mer
Ġs ize
ly mp
Ġdestroy ed
ĠLou is
Ġchang es
ore s
ul ated
Ġcomm ission
Ġr id
im ate
Ġsc enes
Ġwin ning
Ġfle et
s y
Ġlim ited
om m
is er
Ġle aving
ĠSpan ish
Ġde g
ĠO lymp
t t
ĠCl ub
Ġp ay
I I
Ġd en
Ġ7 5
Ġdra w
g a
qu e
s u
l o
rig ade
Ġs elf
Ġprov ide
id ents
Ġright s
Ġpol ic
Ġt rib
t ies
ourn al
Ġtyp e
i res
Ġd ate
ens ion
r d
Ġwrit er
Ġf ail
s en
ĠD u
Ġter rit
ar i
Ġk il
Ġtrans port
Ġprop osed
Ġinflu ence
Ġover all
Ġd ivision
Ġg irl
om s
ĠK h
Ġstruct ure
ĠG reen
ines e
ĠPart y
Ġt ax
Ġ196 0
Ġequ ip
Ġcont ro
Ġ18 4
Ġsc ript
ir al
Ġ3 00
ĠT er
Ġb r
Ã Ń
Ġagre ed
ĠAssoci ation
Ġin tended
at ives
Ġant i
A A
Ġj ud
Ġrun ning
ĠP ri
if t
end ing
ĠEd ward
ic les
ĠAd m
Ġd aughter
Ġde ep
Ġsupport ed
Ġw ide
Ġb ow
Ġp urch
Ġnear ly
Ġb ig
ĠChic ago
Ġbroad cast
ĠM any
im um
ĠCh inese
Ġestab lish
ĠO per
Ġd i
Ġres earch
Ġhel ped
Ġmov ement
Ġ199 8
ĠR o
Ġmar ried
Ġaward ed
il i
Ġint ens
Ġmult ip
ĠI r
ĠCoun cil
ĠS ong
il es
at ively
ac ing
Ġfav or
Ġdis s
Ġcre ate
ir m
Ġd ark
ĠS al
Ġs usp
n y
p ris
te en
om er
ĠK ore
Ġb ird
ĠEn ter
Ġst ars
Ġlong er
Ã ¶
Ġlangu age
c he
Ġc at
Ġcapt ured
Ġpl anned
Ġhig her
u z
Ġincre asing
m on
Ġcomp ared
ĠE v
Ġf ans
ĠS erv
ĠE mp
Ġconc lud
Ġcour se
ĠSup er
Ġchang ed
Ġ3 3
Ġapprox imately
Ġexper ience
Ġfeat ure
sel ves
Ġl iving
ĠJohn son
ound s
Ġrel ated
Ġd one
Ġfif th
Ġthem selves
ent y
Ġ7 0
ĠHist ory
ab it
Ġwith d
ĠPac ific
t ained
b ers
a rent
Ġprodu cer
Ġmost ly
Ġtem per
Ġtrack s
is ions
ĠB ack
s s
ĠIn ter
Ġsp ace
Ġoper ations
an ced
i j
c an
Ġde ad
ut h
ĠBill board
um n
ĠA pp
Ġth us
ol ic
ĠN ot
ĠB et
Ġw oman
Ġsy n
Ġim m
Ġrem ains
Ġb ring
ĠM ont
th ing
Ġquar ter
Ã ¼
Ġsold iers
im in
Ġ ult
Ġo ur
Ġn atural
oin t
v in
Ġwhe ther
Ġwe ap
Ġprob ably
Ġf ace
Ġd ram
Ġcon cept
and ed
Ġr an
ĠF inal
r ast
ĠSc ot
b our
Ġbatt les
Ġbuild ings
Ġcop ies
Ġcomple x
Ġre act
Ġ199 7
ĠS un
ĠS ince
Ġfor ward
Ġlead er
Ġdep art
ĠK n
Ġly rics
Ġex tended
Ġb oy
Ġv oice
ir ing
it t
Ġhe av
Ġbo ard
Ġch all
osp ital
Ġiss ued
ĠAtl antic
Ġ3 7
g ing
ve y
Ġsuff ered
Ġre ally
ri age
Ġcount ries
r ate
ĠF ort
ĠL ake
ĠB ig
ur t
Ġc m
ĠSe ver
ĠCong ress
ĠFran c
Ġinclud es
Ġimmedi ately
ĠL ove
ĠFlor ida
ĠB oth
Ġmet h
Ġgo als
Ġat tend
ĠJ im
ĠJ ew
Ġcap ital
h ood
Ġpriv ate
Ġmix ed
Ġmanag er
Ġoffic ers
i ant
Ġlik ely
Ġcan n
Ġbre ed
ĠO ld
Ġremov ed
Ġm ach
Ġpl ant
i en
ĠSe a
ven ue
b ury
h old
d e
Ġdist rib
Ġce leb
ĠD ist
Ġincre ase
Ġsubsequ ently
ĠTex as
Ġinit ial
ĠQue en
ĠCh ina
Ġm ount
ĠT own
ĠP et
Ġhe alth
ect ions
ri a
Ġal ways
Ġle ave
Ġpl ans
Ġcomp an
Ġstat us
ord er
Ġfoc us
ri al
ĠT or
Ġloc ation
Ġv ia
ĠAn other
ĠT rans
Ġserv ices
ĠL aw
Ġn etwork
Ġvis it
Ġc oin
ĠM r
ĠAn t
am s
ĠC amp
Ġm ur
Ġproblem s
i ation
Ġoff ered
Ġfl ag
Ġcol on
ĠH ow
w ell
ĠL ord
ĠEar th
Ġinst r
Ġterm s
Ġappro ach
ail y
ĠO l
ous ly
et ic
Ġn orm
ĠCon st
Ġt ons
ct or
Ġvill age
oun ted
Ġmod el
Ġf ell
Ġsomet hing
w er
ill s
Ġadm inist
ĠB oy
Ġt or
orn ing
ĠT ur
Ġcoun ter
Ġmajor ity
Ġs ch
ĠW ood
iron ment
Ġprofess ional
Ġ18 3
ĠCanad ian
b urg
ĠI ts
Ġinter s
ad ium
ĠAfric a
ib r
Ġg ot
ĠR ail
Ġdam aged
Ġcons ist
Ã ³
ac hes
ĠM ur
ur ies
Ġc ause
Ġad op
Ġmeet ing
Ġj ob
Ġappear s
Ġmin ute
ĠS quadron
ĠCent er
ĠG re
Ġrank ed
Ġl ay
Ġindivid ual
ol k
ĠRuss ian
st e
ce an
Ġattack s
u f
Ġcomp osed
o es
if y
ĠHigh way
Ġ9 0
it ect
ĠR ad
Ġreve aled
Ġfl ight
Ġan g
Ġpl ot
Ġdiscover ed
re ak
Ġra ised
um ed
ĠM el
l or
Ġfin anc
ĠK ent
ĠCent ral
Ġrespect ively
Ġm akes
ĠCar ol
p an
Ġassoci ated
ĠMart in
ĠS ir
Ġ199 5
Ġnum erous
Ġd omin
ĠII I
a ult
Ġan c
ĠAngel es
Ġt akes
Ġal tern
g ar
Ġneed ed
Ġ3 4
Ġinsp ired
Ġl ived
ĠB ow
Ġco ach
Ġlaun ched
o e
Ġy et
Ġam b
Ġg rand
ri ption
Ġattack ed
Ġc and
Ġp ow
Ġoccur red
Ġn ature
Ġg ra
Ġd ig
Ġattempt ed
um ents
Ġcont ains
Ġve h
Ġsh own
ĠD V
Ġb ene
Ġh our
ĠM iss
Ġcond itions
est ival
d own
Ġmov ing
Ġup per
u als
ĠD es
im b
i est
Ġ3 8
k a
k en
ĠT V
ĠY ear
ĠGro up
ect ive
Ġcol lect
Ġs ales
ĠT our
j oy
or ce
augh t
ĠD el
ur ity
Ġ201 6
Ġiss ues
Ġ199 6
Ġy ards
Ġ195 0
Ġb irth
Ġex am
Ġsl ight
ĠRe v
ĠEmp ire
iz ing
Ġs al
Ġwho le
Ġc er
w in
Ġ i
Ġinform ation
u ing
Ġrefer red
Ġf arm
Ġm om
o ly
ĠO ut
Ġbo x
Ġcrit ical
ver t
ĠU nder
Ġdefe at
Ġs en
Ġp it
Ġse lected
Ġsmall er
Ġresul ted
Ġnum bers
Ġfin ally
re me
Ġb ad
Ġinc or
ĠP enn
Ġelect ed
ĠG ar
Ġst ay
Ġgr ant
Ġqu al
Ġsc ient
Ġact ive
Ġsing er
on ic
Ġpr incip
ĠItal ian
Ġsec ret
k in
Ġm ission
it ation
u ated
ĠJ ose
Ġ199 4
Ġoper ation
and on
Ġstand ard
en ant
Ġindust ry
Ġen s
Ġlarg ely
Ġass igned
Ġs em
Ġpre c
Ġl ink
us e
ort un
Ġth r
ou ra
Ġleg isl
Ġs af
Ġear ned
Ġcomment ed
ĠCor ps
Ġexp ected
Ġm ale
it ude
il ed
Ġaud ience
ĠDV D
ou d
Ġsugg est
ã ĥ
Ġlist ed
ĠAr m
Ġro y
Ġcover ed
ĠD is
Ġg re
ĠC rit
Ġun able
Ġpur p
ire ction
Ġsc hed
ĠMich igan
Ġtradition al
Ġhe art
ĠC r
Ġtr ade
Ġart ist
Ġdou ble
ĠV iet
Ġref used
Ġeduc ation
y a
Ġcl osed
Ġnew sp
g r
Ġfriend s
Ġa w
Ġrec over
Ġunder st
oun ts
Ġprim ary
ag on
ĠP re
Ġatt ention
Ġmeth od
hip s
og ue
Ġt alk
igh ter
ter ed
Ġbel ow
Ġs ister
Ġk ind
Ġpl at
ff ic
ĠW ales
Ġoffic er
Ġcont em
Ġre ason
Ġdep ression
Ġ194 0
Ġperform ances
Ġab ility
Ġen joy
ĠM ass
o o
Ġme ant
Ġw alk
Ġdecl ared
ĠN ort
Ġfight ing
Ġ4 9
Ġbl ood
pl es
ĠM ore
Ġg iving
Ġ18 0
Ġcommand er
und red
Ġw ord
is her
Ġmid dle
Ġlet ter
Ġthe at
Ġcomp l
Ġrelig ious
ĠC ath
Ġm ax
Ġh ot
Ġset t
ĠC le
Ġbook s
ĠO x
Ġr ate
on a
ĠAr ch
Ġmat ches
il s
Ġn ames
ĠSt ep
ĠC are
Ġrecord s
ĠL ong
ĠAc ad
ap ed
ĠDem ocr
Ġconst it
ĠB ec
Ġun it
ĠF er
Ġprodu ce
Ġquest ion
ĠT est
ĠZ eal
ĠTe am
Ġcent re
ound ed
Ġser ious
Ġcompet ition
Ġto uch
u x
ĠM ajor
Ġ ri
ut ch
ant asy
od ies
im s
Ġdis app
Ġvoc als
ect or
Ġab andon
Ġm ention
os h
ĠMin ister
ĠSever al
Ġrap id
i ences
Ġ4 1
Ġ199 2
ro ad
ir t
qu ar
ic ted
ĠW al
Ġacc ount
ĠC ons
Ġdoc ument
Ġn ecess
Ġkil omet
a res
Ġm or
Ġen ergy
erv ation
ech an
Ġconstruct ed
ĠF ore
ĠK enn
Ġd ut
en ing
os es
Ġthem e
ĠZeal and
Ġr is
ru g
Ġst ra
ĠF ox
ish op
ri er
et te
Ġc as
ĠS um
Ġhigh ly
Ġnear by
Ġp ick
ĠT ime
y r
Ġsepar ate
Ġroy al
Ġpos itions
Ġpre p
ail s
Ġcontin ue
ĠMexic o
ĠE r
Ġdr um
Ġt ur
ĠS ar
Ġeff ort
ĠS o
Ġcomb at
vent ion
ed ic
Ġch ief
ĠB u
ĠAfric an
Ġ4 00
ĠH aw
ĠM att
Ġpresent ed
Ġann ual
Ġredu ced
ĠM a
ĠF our
Ġcontro vers
et her
op er
emor ial
ib ly
ie ut
Ġdirect ly
ĠCh ris
Ġ193 0
Ġlevel s
Ġc le
Ġ5 5
Ġme ans
Ġnot es
Ġne igh
c el
Ġse vent
Ġt ried
Ġat tended
Ġf ast
Ġpract ice
Ġh ar
ĠW all
it a
Ġfore st
ad o
Ġcomp os
sh ire
ĠB rad
Ġed ition
ĠD ar
v ement
ĠMad onna
u it
Ġtra in
ĠB ob
Ġn uc
ac her
Ġmet al
ĠCh art
Ġaccept ed
aren ts
Ġtw enty
Ġst ating
Ġ199 3
ĠT re
os en
Ġ199 1
Ġw atch
Ġarch itect
Ġmov ie
Ġconc ert
Ġte xt
Ġadv ance
is ation
Ġrep e
r ical
Ġcand id
ĠH el
Ġ17 9
Ġp air
t rack
Ġf r
stit ute
ĠScot land
Ġport ray
ir med
Ġd irection
i h
ĠJ ones
Ġse em
Ġdis m
ill ery
ew ay
Ġschool s
Ġleg al
h ouse
ĠThe ir
Ä ĩ
ers ey
l ict
ĠAn n
ĠInf antry
Ġth ick
Ġre ject
f all
ĠM anc
ic ip
w ide
ĠDep artment
in em
Ġas p
an i
ĠC ross
ag ing
Ġhor se
Ġg e
l ight
Ġp urs
Ġrec omm
Ġeff orts
Ġ +
Ġcol lege
a wn
Ġman aged
ĠD ou
ĠG o
Ġmar riage
ĠG reek
Ġend ing
Ġ3 9
Ġresult ing
l ike
ic ient
h y
ut ions
Ġrespons ible
ieut enant
ĠTh ree
ir it
Ġw ing
M S
Ġshow ed
ĠL it
b and
Ġdro pped
ĠP ost
Ġins ide
ĠM ic
Ġdis play
ĠB ost
ill ed
Ġcycl one
Ġ18 2
Ġn ation
ĠF oot
Ġenv ironment
Ġc ases
Ġke pt
Ġ4 8
per or
ĠC reek
ĠL ad
ĠLe g
Ġm orning
Ġcult ure
Ġra re
Ġc ust
Ġmean ing
ol f
Ġ4 2
Ġr at
Ġbeg ins
Ġd om
Ġincor por
Ġvar iety
ĠSt one
Ġhous es
ceed ed
Ġsub st
Ġch ampionship
Ġform s
p e
ran e
ĠServ ice
p ass
Ġar rest
Ġw ords
Ġcer em
ĠH ung
Ġsch ol
ce nd
Ġo il
Ġinc hes
ĠWilliam s
Ġcontin ues
Ġmark ed
Ġy ard
ĠRec ords
Ġsp l
ĠB C
ĠSec ret
Ġ18 1
Å į
Ġper m
in i
ĠNew s
ect ing
ol s
Ġsym b
g l
Ġsc ience
Ġb ank
gy pt
Ġus es
ĠS ur
Ġeconom ic
ĠSt an
w rit
ĠT ro
ĠH al
c le
t hel
Ġdef end
ĠPar liament
Ġsour ce
b ed
ĠG ames
ĠF in
Ġmet res
ĠT ri
Ġle ar
r as
Ġh undred
ul ations
Ġqu ality
Ġset tle
ĠP an
Ġ194 2
ĠB ook
Ġstart ing
Ġconduct ed
w h
Ġimp act
th ur
Ġallow ing
Ġs ides
Ġspec ific
ĠE gypt
Ġstru gg
Ġbe at
Ġpres ence
ĠSoc iety
ĠO h
ĠS ol
Ġam ount
e en
ĠJ er
Ġsup pl
sy ch
Ġch ap
Ġex hib
Ġview ers
Ġd u
Ġd ance
Ġcap tain
ing u
Ġp le
ĠV er
Ġr ule
Ġun ivers
Ġtransfer red
ĠL u
Ġdist inct
ĠS outhern
ĠPr ince
Ġ6 5
Ġmultip le
ĠStep hen
ĠL atin
d ing
Ġpot ential
ĠS at
ĠComm ittee
ĠGeor g
Ġfore ign
Ġcont rast
Ġ4 7
Ġen emy
ĠOx ford
Ġpeak ed
Ġtra ffic
in et
p ing
ĠSp ec
ar ian
ĠJose ph
it iz
Ġy our
Ġbecom es
ĠS il
Ġth ings
Ġm ess
Ġown ed
Ġfound ed
Ġgre ater
Ġport ion
ĠAdm iral
ĠL ike
Ġvoc al
Ġenc oun
Ġconclud ed
ĠC amb
Ġresp ond
ĠBost on
Ġattempt s
ian ce
k n
Ġo pt
an es
Ġrel atively
r ong
y m
Ġf ederal
ĠCl ass
ver y
ell ig
id er
ĠManc hester
Ġsc oring
ĠCh ief
Ġproper ty
Ġprim arily
Ġst ories
Ġcast le
Ġdem onst
ĠT w
Ġfinanc ial
ĠHar rison
ress ive
Ġact ually
ĠCap tain
ĠJe ff
ĠBec ause
ĠT im
ĠF orm
og rap
ĠBe fore
Ġanim als
Ġl if
Ġto urn
ĠBatt alion
ĠW in
ĠViet n
ĠH urricane
Ġobs erved
ĠSw ed
Ġcol lection
Ġopp ortun
ĠB at
Ġ4 6
ĠComm ission
f ect
ĠD en
Ġ5 2
ist ics
Ġtit led
Ġfeat uring
Ġwe aken
Ġstreng th
Ġ194 4
ĠDe f
ĠB ridge
Ġwrit ers
Ġw a
Ġin ch
ed s
Ġwrit e
Ġj ournal
Ġsit uation
ĠF red
um ber
e es
Ġw or
Ġm echan
Ġp aid
Ġsp ot
Ġfig ure
Ġdist ance
Ġcompan ies
ste in
Ġp arents
Ġ6 4
Ġprem i
ĠO tt
per ial
ĠLit tle
m as
re l
Ġindepend ent
Ġm el
Ġon to
Ġdiv ided
Ġact ing
Ġ4 3
Ġact or
Ġsh are
Ġm ind
Ġslight ly
a ud
ĠPro du
ĠPar is
ast ic
ĠL uc
ĠG ra
ĠCol umb
ĠCar l
ĠSer ies
Ġcoll abor
ĠL ife
Ġtar get
l am
Ġpiec e
Ġtor ped
ĠM od
Ġpower ful
Ġ4 4
Ġfun ction
Ġre form
ann a
Ġinn ings
Ġconc ent
Ġs elling
ĠEnter tain
or ation
th let
Ġer a
Ġro ugh
Ġr ating
Ġbro ke
os aur
ĠB BC
c hest
ĠM ax
ĠP op
m ond
ist ry
ĠO s
Ġto day
Ġplay s
rick et
ĠHist or
u ge
Ġult imately
Ġl ot
Ġwat ers
Ġtri al
Ġact ions
Ġch o
ann el
ĠCro at
Ġs quare
Ġmax imum
ro wn
ill a
er o
ad a
Ġte nd
it an
l oad
Ġinter p
Ġdis e
Ġcomplet ely
Ġb ound
Ġs ought
Ġl og
ĠAcad emy
Ġpil ot
Ġ192 0
Ġg ar
Ġbl ue
und er
rup t
Ġ ess
ĠMus eum
ot i
Ġ194 5
m ark
Ġsc ale
ĠH or
Ġ194 1
Ġdesign ated
Ġsoc iety
al le
Ġmain ly
ĠL ine
Ġstru ck
Ġ15 0
Ġh us
ot a
Ġbeh av
ĠS k
Ġcon ver
Ġcomb ined
Ġofficial s
ĠS aint
Ġnort heast
z a
Ġactiv ity
Ġpolic y
Ġv ess
Ġinflu enced
Ġtrans l
om y
ĠV an
yl van
c ers
ol ved
Ġse arch
Ġs ay
ent ed
ĠW ay
Ġw ear
Ġalong side
Ġs out
ĠB rigade
Ġc orn
A S
ĠItal y
ĠEntertain ment
Ġcall ing
rac ted
Ġb atter
ian o
Ġth ous
Ġsecond s
ĠA rab
wh ile
ĠAmeric ans
ĠCon f
ĠW ind
Ġse g
Ġsour ces
Ġn aval
ĠLe e
ĠI re
ors es
Ġback ground
Ġwin ter
ĠReg iment
Ġc row
Ġ ice
al a
Ġplat form
Ġnew s
Ġth ir
r ative
Ġwe bs
ĠT od
ph y
quar ters
ud d
Ġsu c
Ġrec ent
Ġm em
ain e
Ġg ained
Ġnomin ated
T V
Ġthe ory
ĠAl b
Ġart ists
on n
ĠA venue
Ġpromot ed
Ġwid ely
ub e
ad el
Ġconf irmed
ĠIre land
H L
Ġsystem s
Ġpass ing
Ġelect ric
Ġreach ing
Ġpro ved
ibr ary
Ġinv asion
ĠFle et
Ġresul ts
p son
Ġconf lict
ĠE ll
Ġgreat est
Ġsubsequ ent
ĠG ood
Ġexpl ained
Ġalbum s
Ġ iron
Ġcom ing
Ġpe ace
Ġnorth west
ou red
t own
Ġ ir
Ġcont ent
ĠA ut
he w
Ġs n
Ġsix th
Ġres ist
Ġ198 9
ĠR ay
Ġw ick
Ġchar ge
g rad
Ġcount y
A F
Ġhe ro
Ġ194 3
Ġwe ather
Ġshort ly
ĠOr ig
Ġsu st
Ġs ays
Ġad j
ag a
ĠB us
ĠS ub
Ġcaus ing
ĠVictor ia
Ġser ve
Ġvers ions
Ġ5 1
Ġp ath
ĠS ant
ĠL o
it ness
al ing
ĠT ropical
Ġexp ressed
Ġb order
Ġse ek
Ġb urn
Ġrece ption
ĠChar l
Ġres idents
ic ed
b on
ĠCath olic
ĠW ork
Ġem ot
Ġc ities
ĠN orm
Ġc hem
ĠAd d
Ġsound track
ans ion
ĠVal ley
Ġse asons
ĠN in
ĠM at
ip s
inf all
Ġs ense
ĠL ight
Ġg reen
Ġh ospital
Ġappear ances
Ġsex ual
ateg ory
t ation
Ġart illery
ĠD i
Ġp un
ĠMid dle
un ction
Ġident ified
Ġrequ ire
igh th
Ġhand s
Ġphys ical
Ġold er
ĠTh ough
ĠL ive
ard en
Ġd edic
Ġt ells
Ġtr ue
Ġoff er
Ġp al
ĠR am
ĠD un
ĠComm un
ys is
Ġk g
ĠL iber
ĠTh rough
ĠSh ow
Ġweap ons
ĠR y
Ġrepresent ed
anc y
Ġa head
Ġg as
Ġext ra
ĠM en
ĠFoot ball
ad ed
ĠT op
ĠY oung
ĠV ol
e ption
Ġheav ily
Ġim age
ylvan ia
ĠJ ul
ron ic
ĠK ar
Ġe as
ĠT ay
Ġdef ense
ĠD irect
l ers
it able
Ġchall en
Ġsup p
ĠUp on
Ġav oid
Ġag g
ĠB ey
Ġapp arent
ab eth
ĠD utch
ĠWe ek
Ġal one
Ġstud ent
Ġsp read
Ġstud ies
kn own
Ġoffic ially
Ġdist rict
ĠI ll
Ġhus band
Ġb it
Ġex ecutive
ĠEl iz
Ġprom inent
ĠF re
Ġinst it
Ġcons isted
Ġorgan ization
Ġst one
ess ions
Ġcapt ure
Ġdeb uted
ĠAl bert
Ġse nd
Ġinj ury
Ġf ired
ĠB ond
b ur
Ġw ild
port s
Ġpat tern
Ġequip ment
Ġpo et
Ġp ack
Ġpre par
Ġres c
Ġinstr ument
ĠF ar
ĠR og
Ġfig ures
ĠC ivil
ĠB re
Ġsur pris
Ġexp ed
ĠD am
urb an
us hed
Ġarg ued
Ġo x
Ġa ired
p ool
Ġe th
Ġr ing
Ġp ict
Ġcontem porary
Ġgrow th
Ġcou ple
Ġdo ing
ac ity
Ġreturn ing
Ġh un
Ġg raph
Ġfl oor
ro g
ĠH omer
Ġb ud
Ġmag n
Ġc ert
Ġp an
Ġwe ight
Ġl aid
Ġst ep
l ines
ĠSt orm
ĠNort hern
Ġear th
Ġdou b
Ġpiec es
Ġmat ter
Ġ6 00
Ġlead ers
Ġaff ected
Ġshe ll
Ġt un
Ġh abit
ĠG al
ap pen
ĠT em
Ġr ang
Ġmain tained
am ber
Ġhe re
in son
i as
Ġcommun ic
Ġmain tain
Ġterm in
ĠH ard
if ying
Ġprop os
Ġocc asion
Ġvis ited
em ic
Ġhy d
Ġspe ech
ĠDan iel
Ġcom es
Ġra in
Ġcritic ized
ent al
Ġactiv ities
st one
ol a
ĠH a
r at
Ġex ec
ac ement
ĠCarol ina
Ġto ward
Ġre ign
ĠJ on
Ġatt ract
Ġem ph
oc key
Ġtourn ament
Ġcrow d
Ġh all
ock ed
ĠOper ation
ul s
Ġc itiz
e ed
orn e
Ġsen ior
Ġtre es
Ġset ting
Ġsing les
Ġrefer ence
Ġd rug
Ġform ation
Ġ5 3
el ve
Ġad apt
Ġ198 7
Ġmed ical
iv ity
Ġsur re
Ġmur der
ĠMar sh
ĠSy stem
n ers
ĠScott ish
u ct
Ġworld wide
ĠGovern ment
Ġb ul
ĠR om
Ġt rying
Ġ198 8
ĠHol ly
ĠDist rict
Ġterrit ory
ĠF ield
est ic
ru it
Ġapp l
Ġneg oti
ĠO cean
Ġst ations
ĠW rit
Ġmach ine
emb ly
ĠBack ground
Ġd og
Ġra infall
Ġl oad
Ġclaim s
Ġdis pl
ĠGovern or
Ġf ellow
ell er
Ġd oll
ĠH ome
ĠCol on
Ġg od
Ġ8 5
Ġbird s
ĠF antasy
ĠDe v
g ian
ĠR od
Ġhistor ian
ĠGu ard
Ġf ully
ĠC he
res h
Ġacc ident
Ġc ell
ul ed
ĠPenn s
Ġris k
ot e
Ġval ue
om ers
Ġthere fore
Ġspl it
b it
Ġch osen
Ġsup ply
Ġgu est
Ġtreat ment
ra el
ĠSh ort
ĠDu ke
velop ment
Ġun iversity
Ġgovern or
ĠSen ate
Ġs ens
amp ion
ĠBe at
Ġd yn
Ġtw ice
Ġfrequ ently
Ġreport s
Ġ ut
ay er
ord in
ĠL ew
Ġle aves
stit ution
g u
Ġrem ark
ag n
ĠStud ios
Ġf aced
ĠG irl
ĠPol ish
Ġp aper
al y
il ly
iz es
led ge
ĠE astern
Ġwall s
Ġoper ated
Ġlab el
ĠC orn
ĠM D
Ġw ounded
Ġbill ion
Ġfollow s
Ġop in
ĠMe an
Ġsurround ing
az z
Ġg rew
ĠB art
ant ly
uf act
Ġplan et
ĠAnd rew
ĠR os
Ġs we
m in
re ct
Ġcont ained
ĠChrist mas
ĠAll ied
or ter
Ġcond ition
Ġman ufact
on ents
res p
ant ine
Ġdeg ree
ran ce
Ġb al
ge nd
Ġher self
isc o
ĠJ ud
ĠN ight
Ġaccom pan
Ġcol or
Ġh orses
Ġs le
Ġpass es
Ġ5 4
t ar
et y
Ġesc ape
Ġtyp ically
Ġun f
Ġre inf
m it
Ġf uel
Ġm aster
is ters
Ġsim ply
ĠWil son
Ġbro wn
ĠTay lor
ful ly
ut ation
Ġele ment
ĠIn st
Ã ¨
Ġord ers
Ġd raft
Ġl ives
Ġrail way
Ġd ang
ĠP en
Ġ198 6
Ġcas ual
am ing
Ġed itor
l a
ĠHe ad
Ġarm s
m ore
Ġserv ing
Ġc amer
u ous
Ġph il
Ġcons ecutive
Ġ9 5
Ġ9 7
Ġmom ent
ĠEliz abeth
Ġf an
Ġch ose
ĠH um
Ġnot hing
Ġauthor ity
ograp her
ĠJo e
ĠAlex ander
Ġcann ot
Ġvot e
ĠE ach
Ġ5 6
ric ult
Ġwork ers
ĠO f
Ġun known
Ġnew ly
Ġn ative
ĠM ike
Ġopp osed
ĠG i
uck y
Ġparticip ated
Ġemph as
is f
ĠJ ac
ĠL es
anc ing
Ġexper iment
Ġgrow ing
r ich
ĠW W
Ġ Î
ĠP ers
ag er
Ġatt rib
Ġp sych
Ġb ass
Ġwebs ite
e f
ĠD et
Ġl osing
Ġnewsp aper
ã Ĥ
Ġf air
yp e
Ġprodu cers
Ġadop ted
ĠL and
Ġadv anced
Ġbene f
il ies
Ġfilm ing
ĠEx p
Ġoff ensive
ĠCast le
Ġhe ard
Ã ¤
im ens
ĠF estival
t hen
Ġsever e
ĠS ound
ĠR et
Ġgu ard
Ġsp irit
ĠIs lands
ĠPenns ylvania
ĠW at
Ġopp osition
Ġs quadron
Ġfe ed
ĠWh at
Ġf irm
Ġsequ ence
Ġex tend
pt on
Ġact ors
ĠH y
Ġf iction
Ġre ar
Ġbas is
Ġcap acity
Ġcoun cil
Ġ rom
ors hip
ĠC ard
Ġwe ak
T C
Ġend s
Ġadv ant
Ġabandon ed
ĠG all
Ġ17 7
Ġpr in
ĠF urther
and a
ĠRec eption
z y
us es
Ġa st
Ġcomp ar
is ers
ur a
ĠIr ish
av en
ĠBl ue
Ġr ival
Ġev ac
Ġprom pt
i ated
Ġhon or
ab les
ĠS S
ĠT ech
Ġf lying
Ġent er
Ġele v
ĠF am
Ġk ick
ĠB ab
le ment
ĠSp ain
ĠHar ry
Ġco al
Ġbe y
Ġcreat ing
Ġde ploy
oc ated
Ġfilm ed
Ġlaun ch
ĠJ ersey
Ġhom es
B A
Ġpol l
Ġh appen
Ġregard ed
Ġey e
Ġnorm al
Ġinc ident
on c
ĠC at
Ġexp ansion
Ġindivid uals
Ġ7 6
Ġ17 8
Ġcritic ism
Ġagre ement
Ġbey ond
oun ger
Ġs ail
ĠU s
el d
Ġsp orts
Ġsp ect
Ġdel ay
ĠS quare
ĠC a
in er
Ġsp ring
Ġfail ure
ĠCo ast
ap ers
Ġch air
Ġl iber
ĠA re
F A
Ġstri ke
Ġdism iss
Ġfam ous
ĠB ul
Ġin te
Ġbo at
im a
ĠL ind
Ġv o
ĠU l
im et
ĠF e
Ġmeas ure
Ġposs ibly
Ġ193 9
ĠS and
Ġhistor ical
Ġb odies
Ġm ob
Ġprog ress
Ġneg ative
ĠC D
Ġcont act
ĠP ublic
Ġachie ved
ific ations
Ġro les
ĠBro ad
Ġkill ing
Ġbelie ve
Ġnar row
Ġsil ver
ĠE nd
ĠW ild
ĠProdu ction
in y
ic o
ĠE lect
ĠC y
Ġret ired
ĠM ul
ĠIs rael
i enced
Ġide as
Ġ ur
ĠV en
on ent
Ġtorped o
ĠL y
ĠIn stitute
Ġdr ive
Ġp et
Ġim ag
m osp
Ġperson nel
ian a
Ġt ask
Ġ6 1
Ġdise ase
Ġ198 5
Ġbrief ly
ĠDo ctor
ĠD ue
h ol
Ġar med
w ar
ĠAr thur
Ġd iam
Ġ196 8
Ġ6 6
ĠRev olution
Ġto wer
im al
Ġarran g
ed om
Ġeffect ive
Ġnecess ary
Ġroad s
k ins
ĠMean while
Ġkilomet res
Ġper man
ock s
Ġapp lic
ĠL iver
Ġgrant ed
Ġrepe ated
Ġinf antry
Ġt ree
ĠT y
ĠAs h
ĠC ub
ĠRepublic an
ĠS und
Ġbud get
Ġrece ive
Ġadminist ration
Ġcol umn
ĠM ir
Ġreject ed
Ġin h
k es
ĠP erson
Ġinter change
Ġtw elve
Ġt able
Ġgro ss
en ger
ĠAl bum
Ġimpro ved
Ġlead ership
ĠCl ark
Ġturn s
im ents
aval ry
Ġext ensive
Ġstra ight
ĠOh io
w orth
Ġland ing
Ġy ellow
Ġpar alle
our ney
av ed
Ġland s
Ġd ata
Ġcross ing
Ġse at
Ġmanag ement
Ġpl ants
Ġpurp ose
o ch
z il
Ġexp ress
Ġbro ken
ĠBo ard
Ġch oice
Ġm ile
Ġdescrib es
Ġexp anded
i Äĩ
Ġsuccessful ly
g ers
Ġdef in
ĠB ell
l usion
ol n
Ġint ellig
Ġsol o
s et
et ball
Ġf ranch
Ġt ru
ĠSecret ary
Ġf ought
om a
Ġdel iver
Ġexpl os
adel ph
Ġle arn
Ġ198 4
u ate
ĠE p
Ġorgan ized
Ġdid n
Ġc aught
Ġanim al
ĠPro t
ĠB urn
ĠS a
ĠH it
Ġ8 00
Ġch or
Ġro of
ĠPhil adelph
Ġex cl
Ġveh icles
Ġanc ient
ĠB ru
Ġsugg ests
er c
Ġcommission ed
ĠE ven
e v
Ġpl aces
h aps
ri f
ĠI S
st ream
Ġacqu ired
ĠM ov
Ġgl ob
Ġcomm ittee
Ġdram a
ĠN ever
Ġ5 7
ĠGeorg ia
Ġun su
ĠCamb ridge
ĠS her
Ġcom edy
Ġcre ation
Ġtyp es
Ġart icle
Ġg ives
ĠL ar
app y
m s
Ġsevent h
Ġf at
Ġ12 0
ĠPhiladelph ia
Ġw ave
Ġpre fer
Ġso ft
ak ers
z er
et ts
Ġhead quarters
a ith
i i
Ġnuc lear
ĠAl so
Ġauthor ities
Ġgen us
Ġcont ain
ĠComm on
ĠR el
Ġsec urity
rest ling
Ġdeterm ined
ĠS R
Ġ196 7
Ġro ll
Ġtra v
Ġb ott
Ġis lands
Ġcent uries
ĠAdd ition
u an
Ġbe aut
Ġcommon ly
r in
Ġmention ed
n s
ĠRuss ia
Ġrec ently
att le
Ġst reet
ot ed
Ġlook ing
ĠW ars
ip l
Ġcontrol led
Ġfav our
ĠM ah
um es
Ġ6 2
am in
Ġenc oura
ĠAm ong
ĠG il
ol es
Ġfam ilies
Ġbatt alion
Ġa im
ĠKore an
Ġhouse hold
ĠAr g
Ġac ad
Ġs and
art s
Ġfind s
out s
Ġwithd raw
Ġad vert
Ġdec re
Ġset s
is hes
ĠNin tend
ut ing
Ġsup por
Ġd rop
Ġstand ing
Ġill ust
ĠLiver pool
g n
Ġl a
v a
Ġun p
ĠH ay
ĠL inc
ĠNintend o
ĠJ enn
Ġref lect
ĠCh ap
Ġsing ing
Ġdec k
Ġf ish
Ġv en
ĠK a
Ġs ac
Ġd ial
ĠB ad
ĠPr ime
ĠEar l
it led
ĠColumb ia
Ġun ique
ĠAs ia
Ġhe ight
Ġprot ect
Ġentire ly
Ġtouch down
Ġcont aining
Ġcult ural
Ġdef ence
Ġfin ish
Ġt ry
w ater
Ġcontrib uted
Ġor chest
ĠSing ap
o h
Ġthem es
Ġm ist
ĠDe velopment
ĠL ieutenant
ĠJew ish
ĠLinc oln
ill ing
Ġprov ides
Ġy ounger
Ġ5 8
Ġflood ing
Ġ198 3
pp ing
ĠBra zil
Ġpurch ased
Ġ7 4
ro om
Ġdef ensive
Ġm is
ĠCh ild
Ġa wards
Ġat mosp
Ġcon vers
Ġarr ival
Ġtit les
Ġsched uled
in ity
ĠH un
ul ate
Ġpow ers
ĠCare y
ĠOff ice
ic ial
Ġres emb
Ġ196 9
ĠFranc isco
Ġth ing
ĠSingap ore
resp ond
Ġaccompan ied
ĠS ix
Ġun us
r ons
ĠPe ople
Ġintens ity
Ġ196 4
ĠR ol
Ġexped ition
Ġper fect
Ġexist ing
ag an
w all
ĠP ot
Ġqu ite
w ick
Ġadvant age
Ġw orth
Ġ7 2
Ġloc ations
ĠH on
at ures
Ġinter act
Ġcerem ony
Ġdedic ated
Ġperform ing
Ġrequ est
Ġb at
ac ted
ĠD ark
Ġphil os
Ġs quad
Ġext rem
Ġcomp uter
ĠB or
k er
ĠT am
Ġ191 4
ĠT urn
ĠL is
Ġoccup ied
Ġst ore
ĠK ey
ĠH MS
ĠDis ney
Ġt y
l aim
Ġf resh
Ġwh y
Ġâ Ī
d y
Ġm ounted
Ġcar ry
Ġ191 8
S tation
il ing
Ġbo ats
Ġm outh
ash ion
ĠOr der
Ġ197 1
ĠPlay Station
t a
Ġ198 2
Ġn ob
Ġcurrent ly
Ġf ix
us c
ĠK el
y les
ĠM ot
Ġclos ely
ĠD ie
r ations
Ġcons ists
ĠB alt
f ort
Ġt im
ĠAnd erson
Ġt ail
Ġ197 2
Ġ196 6
ĠCon ference
Ġ197 9
ĠLew is
Ġ5 9
ĠSte ve
man n
Ġs ession
Ġm ic
Ġl ic
ĠBro ok
ĠMill er
pp er
Ġc ricket
hen s
Ġindust rial
av a
ĠB as
Ġsim ple
ĠRad io
Ġvar i
Ġe gg
Ġel imin
Ġste am
Ġc old
Ġfac ilities
ĠBy z
Ġsupport ing
m outh
Ġprot ection
ĠOn ce
Ġdra wn
Ġp iano
il ton
ĠS u
Ġro w
ĠGr ant
Ġbel ong
ĠOlymp ic
Ġr ise
ĠCon n
Ġr ated
Ġdef ined
Ġsub mar
w are
ĠP u
Ġtra ins
Ġse lection
ĠSh ak
ĠEm peror
Ġpro s
ĠB rian
Ġreg ions
Ġ196 5
Ġstruct ures
aw a
Ġa id
Ġprot ected
ĠBar b
ot ic
Ġh arm
Ġcall s
i ro
Ġfoc used
Ġth row
Ġ #
Ġh air
ĠRail way
g est
Ġmot ion
Ġrece iving
Ġeng aged
Ġshoot ing
Ġcom ic
ver se
ĠP ress
b a
Ġl abor
ĠN HL
Ġad ap
Ġopportun ity
Ġl ap
Ġ197 5
ing ly
ĠG ib
Ġcor respond
Ġ9 9
ĠM u
ir ation
ĠG ulf
Ġanal ysis
Ġstreng then
Ġsh ark
Ġmot or
u a
os a
Ġsp ort
ĠSum mer
Ġnot able
uz z
Ġcitiz ens
Ġobs erv
Ġexper ienced
Ġmount ain
Ġcon ference
ĠJ r
Ġhold ing
ĠW ater
se y
ĠWal ter
ĠHolly wood
ĠA v
ul ts
Ġsout heast
Ã ¸
Ġey es
ĠGerman s
ĠL ab
Ġprov iding
ĠIn c
Ġres ident
ĠOn ly
in th
ol id
ing er
ĠH an
Ġrapid ly
ĠAt t
Ġvis ual
ĠSer b
Ġcasual ties
Ġview ed
Ġh ired
ad ing
Ġ197 4
Ġb ranch
Ġm ut
F L
Ġmer ch
Ġchart s
if ically
un ior
ĠDav is
op her
Ġtrans form
Ġal le
Ġrecogn ized
Ġ197 3
ĠSpec ial
Ġv ac
he im
Ġro b
Ġ6 3
ĠDemocr atic
ĠU N
Ġ7 7
Ġsit es
Ġschol ars
Ġvol ume
il er
ĠRe view
bur gh
Ġste el
Ġreact ion
Ġparalle l
ess ed
Ġ7 3
Ġg ain
ĠR ome
Ġconc er
ĠK ir
ĠBet ween
ĠD own
Ġsh ared
Ġpro te
Ġte ach
Ġh yp
ĠF all
Ġed ge
Ġc art
Ġpublic ation
ĠJe an
Ġ197 6
Ġmod er
Ġtemper ature
Ġdig ital
Ġeconom y
Ġdevelop ing
ro ll
ĠT en
Ġinters ection
Ġhead s
ĠB ank
Ġc ool
ĠPro v
ĠN az
st anding
b ox
ĠN ap
f riend
Ġsymb ol
Ġsecond ary
z en
Ġappro ved
y er
ĠG ord
ĠLad y
Ġloss es
Ġch ance
ĠPr inc
al i
Ġv on
Ã¡ n
Ġhyd ro
Ġr ac
om ew
it ors
ĠM as
ĠO b
olog ist
Ġw itness
Ġprep ared
Ġcont est
Ġen l
Ġsubst ant
onc Ã©
Ġbelie f
ĠD aily
if ul
ren ce
r ant
Ġsignificant ly
Ġmy th
ĠW omen
ograph ic
Ġlet ters
ĠPhil ipp
ĠMus l
Ġs ort
Ġband s
ĠSy d
ond er
Ġdom estic
ach us
Ġc ard
ast y
Ġ25 0
Ġs ave
Ġinst ruct
Ġdes cend
Ġunsu ccess
Ġkn ew
Ġsouth west
ĠComm and
Ġ6 7
Ġfranch ise
Ġt ank
Ġliter ature
un te
ry st
Ġgo es
Ġrough ly
er al
ak a
b reak
ĠM ain
Ġpain ting
Ġsem i
ĠBey oncÃ©
Ġact ress
Ġass ault
Ġtechn ology
or a
ĠColon el
en c
Ġ urban
thel ess
Ġp itch
Ġad vent
ran ge
Ġany thing
Ġproject s
Ġc ab
Ġc ore
ĠInd ust
ĠN ick
Ġbrother s
Ġc ars
ĠB ern
ĠP oint
ĠPl an
Ġad ult
Ġresist ance
Ġl b
Ġsh ape
Ġex act
Ġgame play
ell a
i ents
Ġstory line
ĠSup reme
Ġemploy ed
ĠKent ucky
ĠI V
rop ri
ad s
im inal
Ġinj ured
ul pt
ĠV ar
Ġre asons
Ġrul es
ĠWh it
ĠInd epend
Ġd aily
Ġag ent
Ġ194 6
ĠSt ation
ĠSp ring
Ġ ign
Ġsh all
Ġ198 1
ĠF air
Ġwat ched
Ġ8 2
Ġ9 6
Ġpopular ity
ir a
Ġf it
ĠB all
Ġis ol
Ġ6 8
ag ement
ony m
Ġcomp osition
Ġper haps
Ġadd ing
Ġdecl ined
at i
Ġren amed
ĠC ur
Ġget ting
ĠâĪ Ĵ
ĠR oss
Ġenjoy ed
Ġcomp ris
Ġopin ion
ĠThe at
o z
Ġcal c
ĠNor way
Ġpo em
om ic
Ġn or
Ġsh aped
Ġrep utation
am m
Ġunder t
Ġconn ected
ĠB ase
Ġ191 7
ink ing
Ġconver ted
Ġl ov
ĠM os
Ġest ate
Ġview s
Ġmus eum
ĠMass achus
b ound
Ġd ry
Ġd rew
Ġre nd
Ġst ages
ĠOlymp ics
ĠP rem
o ir
ĠI mp
Ġret ire
ce ived
Ġregard ing
ĠGold en
ĠD ream
ĠMassachus etts
g al
os l
Ġdist ingu
ĠW alk
if orm
Ġs un
Ġag ricult
Ġhead ed
Ġallow s
re ts
v est
Ġb ed
Ġn ick
Ġ8 7
h an
ĠS el
Ġaltern ative
Ġj ourney
ul es
Ġmiss ing
ig g
ĠV i
Ġdep th
Ġc ited
Ġturn ing
ĠAb b
ĠS us
Ġincreasing ly
ath an
at o
e per
k o
ĠL et
Ġappro ached
os is
Ġplan ning
ĠR on
Ġ16 0
Ġrespond ed
ĠAir port
Ġst adium
ĠH art
Ġknow ledge
Ġ194 8
Ġover l
Ġex erc
ild ing
em an
Ġwe alth
Ġeas ily
Ġ7 00
Ġf ashion
ol t
Ġesc ort
Ġconstit ution
Ġcol lected
Ġequ al
ĠAb out
Ġsuc ceeded
Ġreb u
ps ons
Ġintrodu ction
ĠK en
Ġc ells
un icip
Ġsust ained
m od
Ġtri p
Ġexist ence
ign ment
ĠB al
Ġfl u
Ġp ul
Ġocc as
ĠIm perial
Ġsaf ety
Ġaut h
Ġlear ned
ĠSim psons
Ġt all
ĠR un
Ġ6 9
w ise
Ġoper ating
ĠIn it
Ġmod els
Ġcol le
Ġ197 8
h i
Ġcar rying
ret t
Ġpromot ion
m itted
Ġy outh
ĠVietn am
Ġ7 8
ur ation
Ġshow ing
Ġbase ball
Ġlim it
eng ers
ĠMc G
Ġbur ied
ĠSong s
e g
ig er
Ġex change
on ia
Ġ9 1
Ġweaken ed
c ome
le ton
Ġpain t
Ġcred ited
ĠA D
Ġse ems
ĠL oc
Ġ191 5
Ġhum ans
ĠC ape
Ġimpro ve
Ġdep end
Ġim pl
st ate
Ġdesign s
Ġarran ged
Ġfre eway
ĠJ ay
Ġjoin t
ĠShort ly
Ġa thlet
Ġland fall
Ġr hy
Ġprodu cing
Ġshe l
Ġearl iest
ĠSyd ney
Ġpro ceed
ĠOtt oman
Ġv an
Ġfl at
in ary
el er
ol i
ist an
Ġnot e
Ġsc ulpt
Ġlast ed
Ġsettle ment
ac ts
Ġret ained
ĠWh o
ĠP ict
Ġ197 7
Ġt on
ĠN aval
ĠMo ore
ĠPol and
Ġac res
Ġdesc ription
p ut
Ġ9 4
ĠR oy
ĠR em
Ġb rand
iss ance
ĠMary land
A R
ĠC ra
re ll
iv ered
Ä ģ
Ġres erve
ĠM TV
ĠSt ew
ival ent
b ell
Ġlaw s
Ġappoin t
Ġassist ant
Ġrepl ace
Ġcons c
our ces
Ġpat rol
Ġinst all
Ġ8 1
Ġgen re
ins ula
Ġplay off
Ġprogram s
ad er
Ġv irt
Ġc atch
Ġcoast al
Ġviol ence
Ġ9 8
Ġent rance
Ġstat ement
Ġh its
Ġ196 3
ĠJ es
Ġappl ied
ĠAr ts
Ġsyn t
Ġcon sequ
Ġne ut
ie ge
Ġtr ust
Ġscient ific
ot hes
Ġt ick
ĠP ass
av ig
m ath
p et
ĠR id
Ġexcl us
t ical
ĠRh odes
Ġbatter y
Ġdel ivered
ĠG reg
Ġ191 6
Ġs ections
ĠF ire
Ġun s
Ġcandid ate
Ġindic ated
Ġstop ped
t ime
Ġtown s
Ġgrad ually
Ġt act
Ġit ems
iz ations
Ġpolit ics
l an
Ġb an
ĠBow l
ĠE du
ĠA ri
le e
e ke
o ard
Ġbas k
Ġsuppl ies
Ġdistrib ution
Ġf illed
ĠI G
Ġdet ails
Ġindepend ence
ĠConf eder
el ess
A T
el a
Ġse lect
m un
Ġ7 1
Ġst ream
Ġcomb ination
ĠJ an
Ġway s
Ġem p
Å ¡
us hing
ĠMul der
Ġc inem
ĠB on
Ġgl ass
ĠGord on
Ġeng ines
Ġpart ies
Ġcamer a
re ets
ĠSt adium
Ġappe al
ph oon
ĠB and
end er
Ġprison ers
Å Ĥ
Ġ191 9
Ġ196 2
em ies
Ġ8 9
Ġreg ister
Ġcamp us
ĠA C
ĠW ell
Ġsec ure
Ġent itled
Ġextrem ely
ivers ary
Ġact s
Ġw ars
Ġm ig
Ġreg iment
re c
rop ol
Ġfind ing
ĠTheat re
ad or
ĠR a
Ġeven ing
Ġinvestig ation
Ġt al
Ġon line
ĠSt aff
Ġdec ade
por ation
Ġwin ner
ĠPro f
ino is
ĠUn ivers
Ġadap ted
Ġ193 8
iqu es
ĠC op
ĠK im
Ġb ought
Ġar c
ac ter
Ġ8 8
Ġsurv ived
Ġkn ots
Ġs omew
Ġthreat ened
Ġdeath s
Ġrul ed
Ġmess age
Ġwrit es
as hed
Ġro utes
ĠAn th
i at
ĠB ir
Ġcons um
Ġstud ied
Ġrel ief
Ġrelig ion
j a
Ġadd ress
ĠJust ice
ĠV ill
Ġpropos al
Ġf ear
Ġdown load
ĠInst ead
ĠN ic
Ġt anks
an o
Ġvot ed
Ġredu ce
ĠP o
m et
Ġspec ifically
igh ters
Ġc rown
Ġm ales
ie val
Ġph ase
ĠM emorial
Ġrev olution
B S
Ġsp ons
bour ne
Ġf ict
Ġking dom
ĠA ge
Ġrec alled
Ġportray ed
Ġe c
Ġcontrovers y
B N
Ġdut y
Ġimp lement
ĠC irc
ct ions
ĠH ere
h at
Ġemer g
Ġs oul
ĠA st
ad ow
ap es
Ġb le
Ġcaus es
Ġevery thing
Ġbott om
Ġst ret
Ġ13 0
Ġcap able
erv ative
cher s
Ġconv in
Ġ17 5
ic ian
Ġrefer ences
Ġ195 6
Ġs ell
ĠK ong
Ġimport ance
a ug
Ġag o
Ġbreed ing
Ġe t
ĠT ony
ĠCol l
Ġoff ers
Ġte acher
rid ges
ĠMc K
Ġcross ed
Ġarrest ed
ĠDirect or
ĠSing les
Ġ7 9
Ġmet ers
Ġent ry
ent ially
Ġsuff icient
ĠN el
b ro
ĠP ower
ĠU r
ĠI d
sen al
Ġcl imb
ĠO d
ĠM oon
Ġadm itted
Ġintern al
Ġoper a
ar p
ĠO k
ĠAd ams
Ġcorn er
Ġnomin ation
Ġm ort
Ġown er
u ro
ĠDou gl
b ar
ĠJ ane
ĠAl an
Ġequip ped
Ġinst alled
Ġproduct s
Ġover se
Ġconcern s
Ġcop y
Ġb or
Ġ193 6
ĠJ ord
Ġstart s
ruct ure
ĠIG N
ĠAl f
ĠBe ach
Ġconv oy
ĠCrit ical
Ġpre ced
w ich
and y
Ġcon qu
Ġaut om
ĠHam ilton
rane an
Ġinv ited
Ġs now
h r
Ġt ell
Ġup grad
ak i
ĠEng ine
Ġon es
Ġun l
ans as
Ġprincip al
Ġsh ut
Ġcr ime
ĠSim on
ĠU TC
Ġinter ested
Ġret reat
Ġremain der
Ġrecomm ended
ĠIn t
ĠG ram
ĠMar ia
ĠPl ot
esp read
Ġal t
Ġac id
Ġst ock
ĠY our
Ġact ual
ĠAd am
Ġf ly
Ġ9 2
c a
Ġv ent
Ġ9 3
ĠV II
Ġmed al
Ġsol id
ĠTr ack
Ġchar ged
Ġap art
Ġdo or
Ġconsist ing
ĠFore st
il ation
ĠDe ath
Ġfund s
Ġ196 1
osaur us
i y
m b
v is
ĠInd ones
Ġpromot e
Ġpr ice
Ġmil it
Ġobject s
Ġ8 4
ĠB os
Ġconsider able
ĠC art
Ġg all
ĠV ideo
Ġcompos er
Ġd ates
ak ed
Ġfem ales
ĠN BA
ĠF A
Ġp age
ĠF ound
ĠPro g
ĠWW E
er ted
ĠG en
Ġground s
ĠN ether
Ġ195 3
h us
Ġpo ly
ĠTod ay
Ġb low
ill er
Ġdut ies
re te
Ġext ension
Ġtyp ical
Ġcon g
ĠMil itary
ĠTrans port
ĠHit ler
ĠG un
Ġcor rect
Ġr ural
Ġsome one
ck s
ĠKenn edy
B I
Ġe ighth
Ġev olution
ĠSund ay
Ġim ages
Ġdec ades
ĠPro ject
ĠHow ard
ĠMar c
Ġso le
Ġz one
Ġpen al
v ements
Ġdr iving
ĠIndian a
Ġsp in
Ġhot el
k ing
os ite
ĠP it
Ġident ity
ĠT a
Ġl ane
Ġread ing
AA F
Ġchallen ge
ĠNor we
het ic
Ġocc urs
ĠH ou
ad d
Ġrem ix
Ġman ner
ĠLe on
Ġsub s
Ġperman ent
Ġf rag
ĠSc ully
Ġb rigade
Ġh am
ĠF ive
Ġasp ects
Ġd ated
Ġsk in
ĠT ar
ĠB ry
Ġ194 7
Ġto w
Ġa er
Ġvol can
ĠK at
ĠC ult
Ġnot ing
Ġslow ly
Ġ195 8
reg on
Ġcol our
Ġarm or
ĠB rist
Ġv ir
Ġpost ed
ĠPort ug
Ġrest aur
ĠG ill
ub b
e z
Ġvess els
ens us
ĠMount ain
a fter
ion e
ĠSc ient
Ġspe ak
ĠTur k
Ġ191 0
ĠP ear
Ġ11 0
Ġcle an
ile y
Ġ8 6
Ġsuppor ters
aw are
ĠB a
iv als
ĠD rag
ck now
Ġinvol ving
Ġent ering
Ġdescrib ing
Ġ195 7
ĠA k
Ġb ra
ĠAss embly
Ġen emies
ĠRes earch
ĠR ose
ĠSc ience
vel and
Ġdep artment
n ic
ĠSp ace
Ġequ ivalent
Ġob tained
Ġ193 7
ĠCon stitution
Ġdeb ate
Ġm emorial
Ġd ress
Ġacc ur
Ġclass es
ĠRy an
Ġsett led
orn ey
Ġold est
ĠH ug
ĠD isc
Ġd in
ris is
Ġpurch ase
Ġwid espread
ĠMag azine
f l
Ġsong writ
Ġbas ic
Ġte le
ĠRol ling
Ġdec line
ĠArg ent
ĠI ra
ag ues
Ġpar liament
ĠP ier
ĠO regon
Ġatt ached
Ġinc ome
Ġdec or
ert o
Ġf aith
Ġconcern ed
ĠL enn
Ġdepart ure
he astern
Ġform al
Ġf olk
Ġconn ection
ĠCle veland
ĠIll inois
Ġp up
Ġacc used
ĠThrough out
c ation
Ġrecogn ition
ĠDougl as
oph y
Ġcert ified
Ġinte g
he red
Ġn est
Ġde leg
Ġh a
Ġ <
ĠN ow
Ġo uter
Ġdist urb
r ates
Ġsequ el
Ġder ived
ĠWeek ly
ĠRe le
Ġcomm itted
ic it
ĠS av
i ot
Ġm ode
are t
ĠSt and
Ġa cknow
Ġass umed
Ġ195 9
ĠAnd y
o oth
Ġsw im
Ġhost ed
Ġwear ing
ĠâĢ Ŀ
ĠFam ily
ĠStan ley
ĠJord an
w estern
Ġw ed
ĠFred er
Ġseg ment
Ġf oss
Ġreturn s
w an
Ġt orn
Ġh ip
Ġchar ges
ĠF eder
Ġsur vey
eke nd
Ġch ampion
Ġacc laim
Ġtem ple
Ġh ang
ĠMed iter
ĠTh ird
Ġliter ary
ĠAr senal
Ġval ley
ĠMed ia
ĠRog er
ĠD al
Ġfl o
Ġden ied
ĠL ow
Ġtermin us
Ġf ine
Ġpop ulations
Ġtrans ition
ĠT reat
ĠT enn
ĠPhil ip
ĠKe vin
Ġs essions
ĠRec ording
agon ist
ĠMediter ranean
ĠBeat les
Ġreg ional
ĠBru ce
Ġcan c
Ġcirc um
Ġthous ands
Ġsupp osed
Ġ195 5
ĠE s
Ġ195 4
ĠâĢ ľ
Ġwar m
ĠIS BN
ĠNorwe gian
ĠBrist ol
Ġdem and
Ġintellig ence
Ġdown town
Ġan s
Ġsh ots
iv a
Ġcomm it
Ġstrong ly
R A
ĠA z
ĠR ain
Ġwick ets
ĠD ig
ud den
hed ral
Ġs ailed
ĠD er
ĠF ederal
Ġpass engers
Ġcirc ulation
he me
em ed
ĠB ush
Ġposs ibility
Ġgener ation
Ġh ill
Ġfre edom
or gan
Ġcl oud
Ġfict ional
ac hel
Ġthir ty
ĠH o
Ġanim ated
Ġh ope
v ens
ĠCh annel
ra ge
Ġrepl acement
I A
Ġcommand ed
e ing
ĠMexic an
Ġr ich
Ġbeg un
Ġassist ance
it o
Ġbehav ior
ĠB ol
Ġmin ister
Ġmiss ions
ĠKore a
Ġdest ruction
ĠW eb
Ġf ruit
Ġcr ash
Ġmiss ed
Ġcr iminal
atin um
b orne
m es
am i
ĠÃ Ĺ
or ced
ĠP ur
ĠR aj
Ġmov es
ĠR ow
Ġexcept ion
Ġt ied
Ġvol unte
l ig
ĠWith in
ch ar
ĠCol or
ĠC as
ĠCon c
Ġcost s
Ġbring ing
ĠM aster
up t
Ġint ention
Ġhigh light
Ġfeel ing
els h
ĠN ar
Ġalle ged
Ġfin ishing
ĠB ah
ĠE ric
ism s
ĠAddition ally
Ġrecover ed
Ġunus ual
Ġspe aking
Ġdem ol
ĠF ame
Ġsh op
ĠS ab
or al
le ts
Ġserv es
Ġproper ties
Ġstay ed
Ġincorpor ated
Ġstr ateg
ont o
Ġattrib uted
Ġ8 3
Ġbre aking
az a
Ġemer ged
Ġs ons
Ġinter cept
Ġopp osite
ĠLis a
Ġd ipl
Ġ195 2
em eter
ens es
ĠPh ill
Ġdr iven
Ġtheat re
ri ers
ĠMor ris
r ating
ĠMor gan
Ġatmosp here
ĠI ron
Ġchor us
a ire
ĠRob inson
oth ing
Ġclass ic
Ġoccasion ally
ĠNorm an
ĠPri or
ĠK r
Ġread y
ole c
ĠE le
Ġestablish ment
Ġc avalry
Ġsp ok
um in
ĠE ver
Ġregular ly
Ġcour ts
Ġeffect ively
Ġdiss ip
Ġsurv iving
Ġv ary
ĠTem ple
Ġd ream
Ġ193 3
th m
Ġd ivers
Ġrespons ibility
Ġmethod s
Ġpre y
ĠTe levision
ĠSim ilar
ĠHaw ai
ĠS ky
og en
Ġsound s
ĠA round
Ġsh ore
Ġcomplet ion
p ective
ĠUn like
Ġmaterial s
we ight
Ġsup erv
Ġ17 6
Ġprov ince
ĠConst ruction
d on
ĠC E
ut y
Ġclass ified
Ġhe at
Ġatt racted
Ġwar ning
Ġfield s
w en
osl av
so le
Ġdiv isions
Ġaccom mod
r im
ĠG h
ĠC ab
Ġqu ant
Ġent ertain
Ġpers u
ĠFranc is
ĠNel son
ec e
b an
Ġtechn ical
Ġglob al
ĠN ich
Ġinterp ret
n old
ĠF inn
ĠPat rick
Ġm o
Ġdiffer ences
in ton
Ġpass age
A C
ĠL anc
ĠAn ton
ĠF ord
ab led
Ġk id
Ġ193 5
Ġcru iser
Ġb rain
ick s
ĠPrem ier
Ġn one
Ġne ither
ĠSwed en
2 0
ĠB udd
ĠD E
Ġab oard
ĠT echn
Ġst ood
ip e
Ġs am
ĠM it
Ġbattles hips
Ġreinf orce
oy d
Ġ194 9
Ġclub s
Ġbask etball
Ġassoci ation
Ġ195 1
ĠW elsh
Ġroom s
n ce
Ġele ven
Ġanc est
Ġrat ings
n ings
ĠN ations
ĠH ell
Ġmusic ians
id den
Ġh al
Ġdes ire
Ġsh if
Ġmed ic
Ġs qu
Ġro se
Ġout break
Ġsepar ated
Ġclass ification
Ġcl imate
Ġseem ed
om ot
ĠAn ne
Ġvot es
te enth
ag le
Ġpred ecess
ĠTor onto
Ġrequ ested
Ã³ n
Ġveh icle
Ġpict ure
Ġhistor ians
ĠMatt hew
Ġm ent
Ġreal ity
Ġmem ory
ĠD og
Ġmov ements
ĠAll en
ĠProf ess
Ġchem ical
ic i
ĠMar g
j i
ĠByz antine
ew here
Ġm ap
Ġhop ed
ĠMar ine
ĠNether lands
ĠCh ron
ĠBel g
Ġ ille
re ck
ab il
ĠO pen
Ġra ise
Ġdifficult y
ĠJ ournal
ĠS n
og y
ĠE very
Ġrest ored
ĠP ow
ĠS ports
b urn
Ġexp ect
Ġprogram me
ĠW he
ind er
Ġv ide
Ġcommun ities
ĠB ang
ĠUS S
ig e
Ġrem ember
Ġra id
Ġf er
Ġte en
ĠIra q
Ġfl ank
ĠJew s
Ġf al
Ġpremi ere
Ġdelay ed
Ġdiscover y
Ġp ure
ĠDe an
ĠJac ob
Ġrel ative
ĠAg ain
Ġann iversary
Ġinsp iration
Ġgreat ly
Ġinj uries
h ar
Ġg al
Ġsat isf
ĠDes ign
Ġother wise
ĠB ishop
Ġ19 00
Ġneigh bor
ĠS ax
Ġacc ounts
Ġfund ing
ĠUl t
Ġdep ict
h ire
ĠD omin
il ers
Ġpra ise
Ġsurround ed
Ġstr ate
i ate
Ġrec ru
Ġd ens
ĠN C
Ġmass ive
Ġpenal ty
Ġsp oke
Ġpart ner
Ġc rop
Ġneed s
Ġclaim ing
Ġtri es
Ġd ie
ĠW right
Ġsu it
Ġass emb
Ġbatt ing
Ġweap on
Ġcross es
Ġphot ograph
Ġstrate gy
Ġc ra
Ġl at
Ġcons p
Ġform ing
an th
ĠD or
Ġw rong
ĠSt ra
Ġast ron
ĠR ick
Ġle gend
Ġinvol vement
Ġfl ed
Ġaccom pl
Ġstand s
ĠGl ob
Ġdocument ary
g ets
ĠAr men
Ġwor st
ĠCroat ian
re al
a ired
ĠD ick
Ġarchitect ure
Ġrem n
ĠH op
ĠO ak
ĠD a
Ġtem porary
Ġas h
ub le
Ġbomb ard
Ġchair man
ĠHe art
Ġdeterm ine
ĠJ am
Ġpl ane
Ġen f
ĠThom pson
go ing
Ġdismiss ed
ut her
ĠL ast
Ġgirl s
ĠRuss ell
Ġro t
form ula
ĠIs lam
Ġin ner
Ġhe ar
Ġwe ekend
Ġs ale
ĠT rib
ĠHe nd
Ġconvin ced
r um
ĠCent re
Ġens ure
Ġc ategory
Ġres erv
Ġc ul
Ġ0 6
Ġadapt ation
ĠN FL
ĠMar s
Ġres ources
ond s
Ġs ight
Ġcolon ial
Ġsomew hat
Ġl ibrary
Ġinter ests
ĠH oly
ly n
ĠMod ern
Ġst reets
ĠF ree
Ġimmedi ate
w ing
Ġsc heme
ĠCar ter
ĠWin ter
ĠPu erto
b ody
Ġstar red
ĠF ront
Ġmed ieval
Ġcomm emor
ĠCo oper
ag re
Ġr ay
Ġfall ing
ĠKel ly
ost er
Ġabs or
Ġcar bon
Ġpresident ial
itz er
Ġ ic
we alth
ĠK er
Ġthr one
ĠSp e
p o
Ġacad emic
Ġsurv iv
Ġapp ropri
Ġclass ical
ĠD ra
ĠAl ong
Ġtechn iques
Ġr aces
Ġs ed
Ġf itted
Ġme ets
Ġegg s
Ġf ighter
ay a
Ġcon vent
Ġo ri
Ã ±
ic ide
Ġl oyal
Ġn inth
ĠBro ther
ĠHung arian
ĠR ang
ĠN etwork
n ight
Ġb right
ĠG ard
ĠN iel
Ġad ults
ĠP ak
ĠB ou
Ġsuper ior
Ġsubmar ine
ĠN ob
Ġpass enger
Ġreview er
r ine
Ġinter ior
Ġl ake
Ġattack ing
Ġabs ence
Ġsee ing
es ter
Ġ191 3
Ġren ew
ĠTh us
Ġfavor ite
ĠT ok
ĠW y
Ġair port
ĠL abor
ĠPark er
iv an
ĠE st
Ġel se
ĠG ri
Ġengine er
Ġpremi ered
b ec
Ġconv ection
Ġsynt hes
Ġal ien
os ure
ars h
Ġde emed
ĠBat man
Ġvis ible
á »
Ġd ub
Ġconc lusion
Ġland ed
ron ze
ĠHar ris
Ġd ating
ĠL ate
ĠA I
Ġappear ing
Ġ192 7
Ġpart n
ĠP A
Ġcharacter istics
Ġ192 6
Ġr um
ac ent
om p
Ġoper ate
Ġafter wards
Ġlead s
Ġrom antic
Ġl ies
ĠB i
Ġelect ions
us ing
Ġfac ility
Ġm unicip
ĠL ibrary
Ġsuff ering
Ġencoura ged
b ook
Ġ x
Ġcol ony
Ġtemper atures
e or
ch ang
Ġmod ified
Ġ193 4
Ġ192 1
ĠMur ray
Ġretire ment
an ia
ĠD NA
Ġbu y
Ġdo ct
Ġcred it
Ġevery one
ĠT s
Ġpain ted
o en
Ġhold s
Ġcontrovers ial
as ure
Ġs an
oss ible
Ġlegisl ation
ĠEdu cation
a ver
ĠKn ight
Ġchall eng
ĠCommon wealth
Ġattempt ing
Ġâ Ĥ
ur ches
Ġbelie ves
ro it
ust er
Ġarch ae
Ġg one
ĠBer lin
Ġ0 8
ĠPol ice
Ġ9 00
Ġw ings
Ġp ound
ĠComm ander
ĠHou ston
Ġo d
Ġc ode
Ġcontin uing
Ġdistrib uted
Ġdomin ated
Ġresc ue
ĠB rand
ĠR AAF
Ġbattles hip
Ġsec ured
ix on
Ġdep icted
aw s
ĠPal ace
ĠSant a
Ġjud ge
t ic
Ġlook ed
Ġauth ors
Ġany one
ĠF I
ap se
ĠSt ory
ĠU t
Ġ191 2
Ġstand ards
sc ape
enc ies
el ine
Ġimm ig
ĠAd vent
Ġ Å
Ġlong est
Ġcan cer
Ġgr ass
Ġunsuccess ful
Ġw el
Ġmon arch
com ing
ac he
ĠH ospital
Ġrail road
Ġhabit at
Ġw ins
Ġn eck
Ġgraph ics
ĠY ug
Ġob tain
ĠC ook
ĠM ort
Ġtra ined
ĠL i
Ġun ion
Ġbig gest
emeter y
ĠSwed ish
Ġs udden
ĠG et
Ġarrang ement
ĠO t
ĠInd ians
l i
ĠRober ts
Ġmeas ures
Ġj ump
ĠO bs
ult ane
Ġ193 2
ĠSim pson
inal s
Ġcar rier
ĠY an
ĠE y
ask a
Ġacknow led
Ġdeploy ed
ow a
Ġnick n
e enth
ĠSil ver
op es
Ġbel t
ĠL yn
om ing
ĠCor poration
Ġinform ed
Ġrepresent ing
tern al
Ġs ter
ĠSoc ial
Ġrele ases
Ġachie ve
ch ing
ĠWar ner
t ure
hes s
Ġ0 9
Ġse es
Ġclos er
Ġgar rison
Ġgener ated
Ġformer ly
Ġal leg
ĠMer c
ten ance
ĠJ ason
un a
ĠN BC
Ġhistor ic
f are
Ġb ab
ĠYug oslav
Ġcon vention
Ġst yles
Ġtri als
ĠAnth ony
ĠC ru
Ġgr ade
Ġemerg ency
Ġg ets
Ġmoder ate
el le
Ġv eter
Ġinflu ential
Ġb ats
ol ph
ĠR AF
ag u
Ġf estival
Ġsuccess or
Ġs iege
ĠH in
Ġcy cle
Ġass ass
Ġquest ions
Ġm olec
ot ype
ĠDet roit
Ġr u
Ġemot ional
ĠCroat ia
Ġown ers
hem at
ĠT al
ut s
Ġ192 9
ĠB ure
ĠP C
Ġinflu ences
Ġnov els
Ġnar rative
Ġrid ge
Ġwood en
ar ia
Ġth in
Ġst ead
Ġdef ended
Ġex cess
ĠAut hor
Ġconst ant
Ġ191 1
Ġapparent ly
ĠG aga
Ġve get
Ġvict ims
Ġjournal ist
f ire
Ġexper iences
Ġdiscuss ed
m ate
ain ts
ĠCh amber
Ġ14 0
Ġchild hood
Ġdet ail
Ġexec uted
ĠGil bert
Ġdipl om
n oon
Ġe at
Ġal co
Ġleg s
Ġinstr uments
Ġpre gn
ĠR ap
ark ed
Ġconc ur
Ġoffic es
Ġtre ated
Ġenvironment al
y ard
ust ed
ĠPrinc ess
Ġg iant
Ġdep os
Ġm ine
il a
ĠAs ian
Ġent ers
ram s
ĠSp ears
Ġ193 1
im ore
ĠD esc
Ġ192 2
Ġcoin s
ach ment
ob i
ĠMel bourne
ann y
3 0
Ġfact ors
Ġbe ar
ĠV ice
ĠHe avy
ĠCl inton
Ġhun ting
ĠJes us
i ens
ĠS omers
Ġhundred s
D S
ili ar
ĠEv ans
Ġch annel
ast e
ĠUS A
ĠNiel sen
Ġo cean
ĠP ope
Ġun iform
Ġres igned
al o
Ġg ay
ĠAtl ant
Ġr ide
Ġreve als
ĠOr gan
ĠGu y
te xt
Ġen h
ĠX box
Ġn avig
Ġsk ills
ĠNever theless
Ġprevent ed
ĠM un
ĠB ed
Ġpoin ted
Ġcl im
re es
Ġb on
ĠW ing
Ġwatch ing
Ġp ushed
Ġsp end
ro t
Ġ0 5
ĠC ategory
E S
us ic
Ġchap ter
or ous
Ġdrum s
Ġfac ing
ĠStew art
Ġint ent
Ġopp onents
Ġhappen ed
Ġprefer red
Ġfle w
ĠMusl im
ĠRe al
Ġfoot age
Ġf il
ĠOrig in
l ie
Ġp ull
Ġdiffer ence
Ġreported ly
ĠBul gar
Ġform at
Ġform ally
Ġf iring
ic ians
ĠT ower
ĠL im
Ġpoet ry
Ġaccom p
Ġche ck
Ġinh abit
Ġint ense
Ġlangu ages
ĠTurk ish
Ġthere after
ot o
Ġloc omot
Ġhand ed
Ġthous and
ĠExp ress
it ter
og ether
Ġres ign
Ġrelationship s
ĠSar ah
Ġch ain
ĠCar ib
t ty
ĠB enn
Ġnot ably
ĠAust ria
ĠSam uel
s ki
ĠR ey
ĠQue ens
Ġdev ice
Ġvisit ors
Ġv ision
ĠLenn on
Ġg ather
Ġexp osed
Ġanim ation
ĠColor ado
Ġex isted
Ġsurre nder
Ġemploy ees
Ġb es
ĠA ud
olog ists
ĠGre ece
on ies
Ġhe aring
id i
ĠR aw
Ġdepart ed
Ġaccomp any
ĠB ird
ĠAlbum s
Ġparticip ate
ro c
Ġlink ed
Ġ17 0
ĠBalt imore
ĠH ans
m ad
o is
h att
be an
d s
Ġreb ell
Ġdial ogue
ol is
ĠAr k
sp ec
y o
st ic
ĠMal ays
Ġext ent
Ġresident ial
Ġafter noon
Ġcru isers
ĠSt ock
d a
ic an
Ġinst ance
Ġannoun ce
Ġlear ning
Ġsubstant ial
ull ivan
Ġdet ailed
ig en
Ġbe ach
Ġaud io
ropol itan
Ġv ul
Ġimp ressed
or age
ĠWrit ing
Ġut il
ĠC z
ĠC am
ĠH orn
ĠL ane
M A
j o
Ġst em
un es
Ġunivers e
Ġav o
pris e
ĠInit ially
Ġm art
ĠMarsh all
Ġs ke
Ġe asy
end ment
Ġperiod s
ĠW restling
Ġpl ate
ĠFound ation
Ġh uge
or ial
Ġtem por
l ock
Ġpubl isher
ĠD ave
Ġent hus
Ġh at
rib ed
Ġimp rison
Ġt aught
Ġterrit ories
Ġte eth
ĠFreder ick
Ġreview ers
op ter
Ġdr iver
Ġtest ing
ĠEr n
Ġvide os
vi ation
Ġ192 8
Ġh appy
Ġisol ated
ot es
Ġst able
Ġfe ud
og an
Ġvess el
iam i
b oy
Ġt ests
Ġc a
Ġup d
ĠHor se
Ġb ridges
ĠH aving
Ġdiam eter
Ġl ob
ĠB anks
Ġrep rodu
Ġunderst and
Ġwithd rew
Ġpick ed
Ġencoun tered
Ġupgrad ed
ro ph
Ġnegoti ations
ep ing
Ġag ents
F C
Ġsym pt
Ġgood s
Ġin her
ch o
ĠMar io
ĠSomers et
ĠRele ase
at ically
ĠAn na
Ġ192 5
ro ke
ĠB uck
ĠJ ess
Ġdang erous
id ae
Ġag ed
ĠK now
Ġsim ultane
Ġ189 0
Ġdi agn
m ission
Ġj unior
Ġfound er
Ġsat ell
Ġnorm ally
Ġdet er
ĠAng lo
Ġbehav i
se a
Ġrel ie
Ġwind ow
Ġfact or
Ġkeep ing
ĠMiss iss
Ġcoll aps
Ġspec imens
Ġre un
Ġpart ly
ĠM iami
ut t
Ġsu re
ĠGi ants
Ġf ur
Ġmed ium
bor ough
Ġeth nic
Ġtechn ique
Ġfrequ ent
ĠPlay er
Ġt ie
Ġc risis
ol as
Ġp ounds
ĠC all
Ġm ir
Ġlow est
et ime
ĠAl ab
ĠE xt
b ridge
Ġv ic
Ġpro hib
Ġmon ument
Ġorgan izations
Ġout f
ĠSe attle
Ġapp rec
Ġ192 4
Ġto ll
Ġd iet
Ġengine ering
Ġtur rets
Ġtravel ed
i able
aw ay
Ġwhere as
ĠChampionship s
ĠS oon
Ġref ers
c hen
ĠC re
Ġins c
Ġrare ly
ĠO p
Ġres ear
Ġdesign er
hel m
Ġt one
Ġp ed
ĠTre k
us al
Ġpro ced
ĠTreat y
Ġl ose
Ġv ice
Ġmain tenance
ĠHum an
Ġa x
ames e
Ã© e
iec e
b rid
Ġdoes n
ĠC R
ĠH and
Ġpart ially
Ġ0 7
ĠM L
Ġor b
ger y
Ġperm ission
ĠI owa
Ġsp ending
Ġadv ice
Ġver se
ĠAlab ama
Ġl ad
Ġcritic ised
Ġby pass
enn is
ĠFor ces
ĠAustral ians
ĠNap ole
ig s
Ġpl atinum
Ġcomp lic
Ġdifficult ies
x ual
Ġfinal e
y gen
Ġag ree
Ġrest ric
Ġunc ertain
Ġpolic ies
l s
ok ed
Ġexc ell
Ġfinal s
Ġcompet e
Ġrank ing
Ġp hen
Ġpro port
Ġmain stream
Ġindic ate
c ol
Ġperson ality
Ġun n
Ġref uge
ĠB uff
ĠH u
ĠD ur
Ġl iqu
Ġpit ched
il st
Ġant icip
atter ed
in ction
Ġconcer ts
ĠThe n
Ġcom ments
Ġrecord ings
Ġrem ove
ĠCharl ie
ĠCarib bean
usc ript
Ġm amm
Ġshe ar
Ġwind ows
Ġcover s
Ġsaf e
ĠCan al
ĠMin nes
Ġsy mp
Ġ192 3
ĠLaw rence
Ġrep air
Ġstri p
Ġmor al
Ġfall s
Ġrepresent ative
Ġse ats
Ġfor cing
ud a
ĠA h
Ġrec ur
Ġext reme
Ġrest rict
ĠMc D
ĠYan ke
Ġf ighters
Ġh ull
ĠB ros
Ġrecomm end
Ġr ates
Ġj ur
Ġover s
ĠCro wn
che ll
ĠM P
Ġal ter
ĠN at
p ower
Ġprot est
Ġprompt ed
Ġto t
Ġtr uth
Ġdestroy ers
ĠTown ship
Ġt enth
ran g
ĠSen ator
Ġdyn asty
en h
Ġdif f
Ġdescrib e
ĠM ach
Ġrec onst
Ġunder w
Ġexam ples
ĠE P
Ġmin imum
ĠI an
Ġbas es
Ġt ub
Ġph r
is d
Ġp in
ĠMin istry
ĠNaz i
m ates
Ġtrav elled
Ġh ockey
A r
ur ance
Ġch urches
ĠUS D
Ġfriend ly
ĠG arden
ĠBl ood
ĠGram my
s k
ĠB rig
if er
ĠHe alth
ĠDe ad
ĠHung ary
Ġneighbor hood
d ie
Ġboy s
Ġp ric
im eter
Ġbomb ers
al ions
ĠPol it
Ġdraw ing
ĠCount ry
ĠÃ Ĩ
ĠBen j
ĠChrist opher
m ers
ĠD ance
ĠRet urn
ĠB an
Ġin aug
Ġj u
ug by
Ġdo ctor
Ġm and
Ġhous ing
Ġdisplay ed
Ġappro val
Ġtrib ute
Ġadj acent
ĠBelg ium
ĠR oc
onna issance
Ġcoll apse
Ġt urb
Ġcred its
Ġaw are
e u
Ġjoin ing
Ġlist ing
w a
ĠH amp
od s
Ġ0 1
Ġcreat or
Ġgro wn
Ġdesign ation
ĠDie go
b ra
ĠD C
ĠE vent
od ore
ant e
z z
ĠShak esp
Ġpartn ership
ĠR and
Ġadv is
Ġf ung
ĠC old
Ġexpl o
Ġprot agonist
Ġref ere
i ac
Ġstorm s
Ġmom ents
Ä į
ĠRep resent
Ġar ts
Ġact ed
Ġcreat ive
ic y
ĠMed al
Ġchang ing
Ġpow ered
ĠG ab
Ġwhe el
ĠM uch
Ġas ks
Ġ *
ĠH ud
ã ģ
ĠK al
ĠLa ure
it ud
Ġround s
Ġinstrument al
ĠChild ren
Ġrad ar
Ġtre nd
Ġvict ories
vel t
Ġposs ession
ĠC amer
ĠL l
Ġ190 8
Ġdoll ars
Ġ els
ĠB eck
Ġpaint ings
Ġcan al
Ġtreat y
Ġappoint ment
oun ced
Ġcover ing
ĠKh an
ĠMic hel
Ġels ewhere
st ers
Ġ190 5
Ġvill ages
Ġsurv ive
ĠC red
es h
Ġmin imal
Ġ190 9
Ġelimin ated
ĠRec ord
ot ten
ĠLeg acy
ic ts
Ġscient ists
Ġsurpris e
ĠBenj amin
ĠGuard ian
Ġp ool
Ġinn ov
Ġprec ip
Ã §
Ġt elling
ĠK urt
ĠMinnes ota
iv ated
ĠHill s
Ġoccup ation
Ġseek ing
ĠRo ose
ĠMississ ipp
Ġb rick
Ġhel ic
Ġarr iving
Ġrhy thm
c op
Ġsu icide
Ġanal y
Ġlo an
Ġnewsp apers
Ġem peror
Ġhelp ing
ĠVietn amese
ec raft
ĠH ockey
Ġpurp oses
Ġbenef it
Ġtw in
Ġsm ooth
ĠAlf red
Ġval ues
ĠA R
Ġoccas ions
ou ri
ĠS et
Ġg ard
act ive
ĠInter state
ĠF al
Ġun like
ĠMan hatt
Ġdisp ute
ĠAdm inist
ĠH ong
rup ted
Ġf ishing
ĠH ind
ĠD iv
ĠManhatt an
v y
Ġo ption
ĠT un
ĠTh or
Ġdeg rees
ĠSte vens
Ġw et
Ġ10 5
Ġg at
ĠWalk er
or ious
Ġmur d
um an
Ġ12 5
Ġso il
ograph ical
ro id
Ġman uscript
n o
ĠL in
Ġsched ule
Ġstrugg le
Ġbal ance
ĠA ff
ĠFrank lin
Ġ0 4
Ġpres erved
ĠPen insula
ĠCom b
r m
Ġc ryst
over s
ĠShe l
ĠFl ight
ĠPer form
ĠS on
Ġres umed
ĠAn im
Ġcircum st
ĠRoose velt
g on
ĠTr ust
ĠK ansas
Ġ190 7
ĠB h
ack s
Ġsurviv ors
or ph
Ġpublic ly
Ġcompet ed
Ġ Ä
Ġc ateg
mun ition
n ik
Ġfl ash
ather ine
Ġco oper
Ġviol ent
Ġ16 4
Ġcandid ates
ri x
Ġhon our
Ġp y
rom e
Ġpro cl
Ġintens ified
ĠB ull
ĠW ard
Ġsp an
ish ment
Ġimp ossible
ĠPort land
Ġpil ots
Ġw rest
Ġd ies
ac le
ĠF ried
act ion
ĠIndust ry
Ġneut ral
Ġwed ding
ĠN ash
Ġb id
inc ial
S P
ĠI ce
Ġab ilities
Ġco ordin
Ġc ook
ul ating
Ġbeaut iful
m ph
s ky
Ġal ignment
Ġconc rete
Ġmult i
ĠSat ur
ok ing
Ġass isted
ĠHot el
ĠPhilipp ines
ĠB orn
f ted
ĠV I
Ġpo ison
Ġarg ument
ĠL ith
Ġpro sp
Ġdefe ating
Ġcons ult
Ġadv oc
Ġelect ronic
ob ile
Ġteach ing
Ġn ations
Ġ188 0
ĠBu ilding
ĠD om
ens ions
Ġsim pl
Ġbusiness es
Ġcust om
is p
Ġl ists
Ġover t
ĠP le
ĠJ os
Ġr ivers
ap h
Ġser ial
il ty
ĠN ative
Ġ16 5
Ġle m
Ġdisc ip
ĠCo le
Ġd anc
Ġel abor
Ġabs ol
ĠW olf
Ġsu itable
Ġopp onent
Ġass ists
ĠMississipp i
Ġagricult ural
ĠL am
ĠBr un
Ġm ines
Ġencoun ter
Ġox ygen
Ġsub mitted
Ġfound ation
Ġinterest ing
Ġtun nel
e are
à ¤
Ġsign ing
ĠDig ital
Ġp arent
ĠAre a
Ġback ing
Ġfif teen
Ġschol ar
ĠC ob
ĠBl ues
Ġunderst anding
it ated
C A
Ġbeh alf
ĠD w
row s
iven ess
Ġs unk
Ġc iting
ic er
ĠH em
Ġw aves
Ġg rey
Ġs ank
ĠW ol
ĠS ullivan
Ġpercent age
ĠAlex and
Ġforest s
f ace
Ġn inet
Ġam munition
Ġsympt oms
ĠShakesp eare
d ale
ĠT ag
Ġor bit
Ġspirit ual
ct ic
ĠD od
ĠCamp bell
ĠTenn ess
b l
Ġpar ish
un ch
Ġsubject s
ĠHal o
Ġfor ty
Ġsk ull
Ġsit uated
Ġclos ing
ĠA thlet
Ġim perial
ĠHin du
Ġn om
Ġsign s
Ġj unction
ĠV inc
Ġrep airs
al ities
ĠP rom
ag en
Ġus ual
ĠK ings
ĠN on
ĠHer o
onym ous
Ġres olution
Ġill ness
Ġvo iced
Ġdel iber
Ġport ra
ĠSte ven
Ġcor por
ĠR ab
as ters
Ġass ess
Ġcontro ll
ĠB ox
Ġfun ctions
Ġaud iences
Ġattend ance
ĠHistor ic
ĠF riend
ĠLuc as
1 0
ĠR ace
ĠD est
ĠJ osh
Ġask ing
l ah
Ġdis aster
ĠEgypt ian
Ġcollabor ation
ĠK u
Ġrestaur ant
f ather
am ic
Ġst ring
Ġfeel ings
Ġsusp ended
ĠM ack
Ġunder ground
Ġfl ights
Ġmount ains
Ġl ieutenant
Ġw orship
Ġev il
amp s
Ġtar gets
Ġcar go
ĠR en
Ġaff airs
Ġex it
Ġ187 0
ĠTenness ee
Ġearth qu
Ä ĥ
ar on
ĠWar ren
Ġoper ational
Ġinit i
Ġpr on
Ġwill ing
ĠLouis iana
ĠMarg aret
r ator
se x
Ġ190 6
Ġaff air
Ġrec re
r us
Ë Ī
os m
Ġfun eral
ĠDep ression
or i
Ġan ch
Ġaim ed
ĠLab our
Ġpro l
res ents
Ġ36 0
ĠMont real
ĠT an
id d
Ġcomp ilation
ĠMc L
Ġ190 4
ĠPal est
Ġpoor ly
Ġdoc uments
Ġab ol
Ġf iled
u v
qu es
Ġle ct
Ġmeas ured
u able
Ġadop t
ĠMiss ouri
Ġs ector
Ġsub t
Ġaff ili
Ġfavor able
rac ts
Ġregister ed
Ġlik ed
r ants
we et
Ġrecogn ised
Ġro ut
Ġel der
Ġconsc ious
Ġcirc uit
ĠApp le
Ġstat ue
Ġtempor arily
Ġb ot
and al
Ġexplos ion
ate ur
ĠSt at
Ġshell s
Ġentertain ment
Ġrep resents
Ġprofess or
ĠCrit ics
ĠN ag
f e
an ium
Ġj azz
Ġrepl acing
ĠB illy
ĠDrag on
ĠMit chell
cept ion
ĠR ing
Ġsequ ences
ĠC ow
Ġprepar ation
ĠJo h
ĠSt r
ĠSm all
Ġfif ty
ine a
ik a
Ġb en
ĠCz ech
id el
Ġoff ering
ĠKir k
Ġart work
Ġinterp re
ĠIndepend ent
Ġ0 3
over e
Ġres idence
Ġrest oration
ĠS now
ĠP ed
Ġc yl
g ate
Ġr ig
Ġdirect ors
Ġnuc le
ĠGra ham
ĠM ess
ĠV is
Ġmar gin
ĠBus iness
Ġw ore
ad i
ĠM es
Ġter ror
ĠMag n
ĠF em
ord ers
er a
Ġrel uct
Ġref lected
ĠN ear
Ġover w
Ġpr ime
Ġexp ensive
iss ions
spec ies
Ġall iance
Ġsuggest ing
ĠY e
Ġto uring
Ġthink ing
inent al
ĠL ov
Ġcomple ting
art ney
Ġrebu ilt
Ġalco hol
anc ell
Ġamong st
Ġb anks
un c
b ishop
Ġf rig
C C
ĠM aur
ĠU E
ĠSe ven
yl an
Ġhor ror
r ace
Ġesc aped
Ġpul led
Ġb ay
el lect
qu ir
Ġlack ed
ĠAri z
Ġcanc elled
ĠF rid
Ġgra v
ĠCub a
re p
ĠEd ge
Ġarm ored
Ġc od
Ġd imens
Ġcover age
T A
Ġre ven
Ġwas n
Ġr acing
Ġam ounts
Ġclear ly
ac on
ĠCh and
Ġdec ides
ĠGu ide
Ġeng agement
Ġpred omin
Ġtrib es
Ġarg ues
Ġer upt
Ġcolon ies
ip h
Ġdram atic
Ġg arden
Ġfam iliar
Ġcommunic ation
app ing
overe ign
Ġpattern s
Ġc ous
Ġr it
ĠInd ies
Ġmark s
ĠPh oen
ĠF iles
Ġdro ve
ok es
ur ally
Ġown ership
ra k
ĠTam il
Ġse ed
Ġremn ants
Ġpers pective
Ġmerch ant
ĠC her
ĠPers ian
u ary
Ġs aved
ĠS ony
st orm
Ġg ang
ĠG rey
ĠAriz ona
Ġcontrib utions
ĠSatur day
Ġmat hemat
Ġpo ems
Ġsol ution
Ġbad ly
Ġpr int
Ġfast est
Ġadminist rative
Ġwick et
Ġfal se
Ġt ag
Ġex ecut
ĠMar ie
Ġ11 5
Ġarm ament
Ġcrew s
Ġplayoff s
t i
Ã º
ĠD ylan
Ġmilit ia
iet ies
Ġexc av
Ġart istic
ĠSc out
Ġcharacter ized
Ġbul k
ath y
Ġbound ary
Ġsever ely
Ġinstit utions
Ġr ising
Ġear ning
ex p
j e
s es
Ġflag ship
ĠConfeder ate
ĠBure au
ĠL as
Ġdisapp oin
f ish
id ency
Ġk ings
Ġret ail
ĠP a
og a
Ġdep ending
Ġinhabit ants
Ġnot ice
it ting
Ġb ran
Ġcon text
ov a
om ber
Ġexpl ains
Ġide al
Ġdistinct ive
b re
or er
ment ed
Ġfr ust
Ġdemonst rated
Ġth rew
Ġin land
Ġcompar ison
ĠOk lah
Ġb ronze
Ġgen etic
Ġrestric ted
Ġcond em
e qu
Ġrank s
Ġbow ling
Ġrang ing
c ru
Ġrec ip
Ġarr ive
Ġfall en
ĠS in
ell i
Ġear n
Ġs isters
ĠAust rian
Ġcontrol s
ect ic
u ations
Ġqu iet
iv ia
ĠN ik
Ġexpl ain
ĠSw itzer
ĠA my
Ġg ap
ĠL ang
Ġman eu
Ġlo op
ĠProg ram
ĠS uch
ĠL iz
Ġv el
Ġk W
Ġob vious
ĠBroad way
Ġwid er
l ife
Ġpract ices
Ġw ants
Ġelect ron
Ġ190 1
Ġrev ol
Ġ17 4
ĠHar vey
ĠWil helm
Ġvul ner
Ġt ip
Ġt rick
ĠE conom
form ation
ĠSwitzer land
Ġsh ield
Ġcons ervative
Ġrid ers
ĠMr s
ĠMur phy
Ġf aster
Ġm ental
l ings
ot ton
ĠA BC
Ġacc eler
ast s
ock ing
Ġnorth ward
Ġexhib ition
Ġk it
Ġme at
Ġsy nd
ĠN a
Ġsur ge
Ġfr ame
Ġdistingu ished
Ġpl us
Ġev olved
Ġspot ted
et on
ĠBar ry
Ġp ace
ov en
Ġexc lud
ĠDel aware
Ġre aches
th a
Ġmill imet
Ġsatell ite
ph a
um a
Ġnomin ations
Ġtri ple
ant on
r Ã©
Ġprep are
Ġpal ace
Ġapplic ation
h u
Ġag ency
ĠOklah oma
E C
Ġg ate
ĠFeder ation
Ġw reck
ĠT el
in ations
Ġquarter back
Ġdomin ant
Ġst orage
Ġte x
Ġhousehold s
Ġarm our
sequ ently
rupt ion
Ġcar riers
ĠCl ar
ĠOrig inal
Ġprote in
Ġsub species
Ġpred icted
Ġaut obi
ĠR at
Ġ0 2
Ġty phoon
Ġ190 3
ĠB omb
Ġv s
Ġsl aves
Ġ15 5
Ġatt ained
Ġblock s
ur er
Ġb oss
Ġint ellect
Ġall ies
Ġbatt alions
Ġ190 2
gr ade
Ġprin ted
Ġrepeated ly
el and
Ġab und
uk i
Ġpredecess or
Ġv ast
ĠLith uan
Ġth or
Ġfix ed
Ġst ores
Ġst rict
Ġver tical
Ġpe aking
Ġsur gery
Ġart icles
ĠPer ry
ĠRid ge
d in
ĠM ik
Ġout l
ĠHar v
Ġt ack
on ed
id ers
Ġy ield
ĠOrigin ally
Ġsign al
Ġexcell ent
ript ions
ĠLes lie
l us
ĠA y
ĠA ld
ĠF if
Ġwest ward
ĠBase ball
Ġbomb s
ĠBab y
Ġphilos ophy
Å «
Ġille gal
I S
ro se
Ġdis agre
asc ar
im en
ĠV e
Ġbi ographer
ĠTok yo
Ġphen omen
Ġadvent ure
Ġper ceived
Ġpre tty
Ġremark ed
ĠR ih
v ant
ĠD S
ĠL ess
Ġwa iting
Ġcircumst ances
ĠH ur
ic ate
Ġcom fort
ĠDen mark
ĠM other
Ġuse ful
Ġmeet ings
Ġserious ly
Ġcho ose
Ġt ight
ar o
ĠH ann
Ġcur ren
Ġap artment
ĠJon athan
Ġsurre nd
T W
Ġcivil ian
ĠR ico
Ġcoin c
it age
Ġrec onnaissance
ĠBern ard
ĠJohn ny
yl er
augh ters
Ġsk et
ĠPlay ers
ĠCamp aign
ĠAtlant a
ĠTer rit
Ġdrug s
Ġs ick
Ġg ust
r ings
ĠR oll
ĠRih anna
ĠC hel
Ġph one
Ġdoll ar
ĠAbb ey
ap olis
Ġlay er
Ġb reat
ĠT on
Ġwh ilst
Ġch amber
Ġret ain
az ing
Ġread ers
Ġinstit ution
ĠP il
Ġ10 1
ĠJu an
Ġcast ing
em en
ĠW or
ĠN ixon
Ġr ub
Ġfriend ship
n g
Ġh olid
Ġsimilar ly
Ġvis iting
Ġstrengthen ed
ri k
Ġmat ters
Ġt iss
L C
m i
est one
Ġal ive
Ġdem anded
Ġh orn
ĠM aj
Ġplan ets
r int
ĠC hen
ess es
ĠEd wards
ĠIn n
Ġsimultane ously
in ian
Ġ16 8
Ġleg acy
Ġenl isted
ming ham
Ġpan el
ar th
Ġaltern ate
ĠPit ts
j an
ĠAr nold
ĠMc M
on omy
Ġem pt
Ġins isted
ĠO pp
ĠRail road
ĠW ag
Ġship ping
Ġbomb ing
Ġre vers
est yle
ĠKe ith
g ro
Ġl anes
ac c
Ġjust ice
ĠS oul
Ġh ook
ĠR al
ĠR ub
ĠLe x
Ġdem ands
Ġmain land
Ġneigh b
ro v
Ġre venue
ĠMad ag
Ġathlet es
ĠPri ze
ĠI ran
Ġprom ised
ĠJim my
P A
ent le
Ġro ots
Ġport ions
ar ation
Ġcon sole
gh an
ĠS em
Ġperson ally
Ġstrugg led
reg ation
Ġgu ilty
Ġlook s
Ġdr ivers
ĠIntern et
Ġguitar ist
Ġdefin ition
Ġcontin u
Ġprop ag
Ġp ione
Ġback ed
ĠMic ro
l ain
Ġbehavi our
ĠR achel
Ġorchest ra
ac re
Ġarm ies
Ġaud ition
Ġd iver
ĠP ars
Ġs ung
ĠC ost
ot yp
ĠJ ar
Ġart ific
it i
ĠV ik
Ġjob s
ĠFurther more
ĠSh aw
Ġdemol ished
ĠYanke es
od ox
Ġ16 6
Ġob lig
ĠTr acy
ar ant
Ġthe ater
Ġstar ring
Ġin du
ĠB ach
ĠL ost
ag h
Ġmarket ing
ĠH ugh
ĠF el
Ġconsp ir
it is
Ġrul ing
Ġess ential
ĠBir mingham
Ġd ancing
az ines
Ġbelie ving
Ġfe els
ĠCom ple
Ġsur pass
ĠConst ant
Ġpurs ue
Ġorgan isation
Ġprof ile
ĠGr ay
ĠEvent ually
ĠF at
ind ing
Ġcount ies
Ġp unk
Ġcomp ens
Ġhead ing
ĠM ans
ater n
ĠCan ter
ĠMcC artney
ic ation
ĠN ine
Ġob st
Ġfact ory
ĠImp act
Ġbon us
a very
Ġc up
Ġmin ing
Ġincre ases
Ġcompl iment
ĠOb ama
ĠUnivers al
f olk
Ġ10 9
ĠDef ence
ĠS ak
Ġdisc ont
ract ion
Ġfore cast
Ġdiscover s
Ġdeliver y
Ġp ages
ap ped
Ġexp ression
ou ver
ĠS ig
um ps
Ġer ected
Ġcl othing
Ġpat ron
ĠJ up
Ġelev ation
ĠBudd h
Ġaff ect
ĠEnter prise
Ġsuc ceed
Ġs q
ĠB aker
Ġport s
ĠBob by
Ġmob ile
Ġs alt
ĠHud son
ĠPhoen ix
Ġmultip l
f le
Ġs ad
Ġsecret ary
ĠT ol
ĠS i
ĠK l
c les
Ġst ick
Ġor n
ĠPot ter
Ġoverse as
ĠPear l
p y
ĠP ubl
Ġeng age
Ġdoub t
ult an
Ġcre st
Ġhor iz
Ġac ou
Ġmay or
ĠWay ne
ĠKar l
Ġdef ences
ĠConn ectic
Ġdr ink
Ġdem ocr
Ġdeter ior
ĠMadag ascar
Ġk iss
ĠPe ace
tar io
Ġacc um
ĠGirl s
ĠR ights
ĠTod d
ĠConnectic ut
Ġal tered
Ġsett lers
b ird
in ces
ĠN AS
ir ty
Ġren ov
Ġbab y
ow ed
Ġc hest
au x
ĠBos n
O S
Ġp ale
ĠH old
ĠOn tario
Ġexp and
Ġobject ive
ĠWork s
ĠMor rison
Ġst ress
ell o
Ġcan cel
ĠDe b
Ġlegisl ature
ĠCanter bury
Ġhigh ways
sh ore
Ġlist en
war f
ens ively
Ġconvers ion
ĠFrid ay
m at
o ons
ĠP att
Ġv oy
ĠK it
Ġmusic ian
ĠCommun ity
m und
Ġw restling
as ant
ĠD iam
ĠM anu
ir ts
Ġsold ier
Ġcampaign s
Ġaer ial
st an
ĠR an
ack ed
Ġdis l
Ġorgan ised
Ġindic ating
Ġcomp ounds
ok er
Ġra ising
p ent
ĠG oth
Ġafter math
Ġdec isions
ĠAll ies
ĠLeon ard
ĠNapole on
ro us
ĠF arm
ak s
Ġra ids
Ġsit ting
Ġconcent ration
am ents
Ġsc en
ĠSp art
Ġsol ar
ĠBoy s
Ġtur ret
rat ropical
Ġdissip ated
Ġh app
Ġtro uble
yr us
Ġliqu id
Ġh idden
Ġpro ve
ĠFore ign
ĠCy cl
Ġwealth y
ĠA S
ĠB ath
ul ous
if ies
Ġrad ical
Ġacknowled ged
Ġreal ized
Ġstri king
ĠL at
Ġd ressed
ĠT NA
Ġexact ly
Ġappropri ate
o a
Ġan th
Ġdang er
ĠP y
Ġconf ron
Ġimpro vements
Ġperm itted
ĠPr uss
ĠMount ains
Ġchap el
Ġexec ution
ĠK an
ĠWind ows
ĠGri ff
ĠT ed
ĠL aur
Ġpublic ations
Ġsk i
Ġgrad uated
Ġagg ressive
Ġevac uated
Ġremov al
Ġen cl
Ġfew er
Ġinterpret ation
Ġprof it
Ġceleb rated
Ġb ones
Ġsh arp
ĠZ e
Ġven ue
Ġobserv ations
ĠD all
ĠCh ampion
Ġmet er
Ġinit iated
Ġm ac
ot te
Ġtravel s
Ġtheat rical
Ġn et
ĠG ary
ĠLe gend
ues e
ĠOut standing
ĠUE FA
ĠSe ason
Ġ15 2
Ġsk y
Ġstation ed
O T
in ister
Ġl in
at us
iv ation
ĠV anc
Ġcann on
Ġt ort
Ġfound ing
it als
Ġdef ending
Ġrequ ires
Ġrebell ion
Ġpubl ishing
Ġorigin ated
Ġstep s
itud es
ĠVanc ouver
Ġorig ins
Ġconsid ering
Ġjur isd
ĠL ion
Ġestablish ing
r un
Ġdeb t
ĠJup iter
ol ly
Ġext ratropical
ĠSy mph
Ġconn ect
ad al
ĠG ate
ip per
Ġexpl an
Ġbr ill
Ġstrateg ic
Ġmus h
ĠTri ple
ug g
ĠMin t
Ġyoung est
Ġsup ple
ĠT it
ĠM em
ĠDr ive
Ġapproach ing
ad ier
ĠP ap
ra pped
Ġarrang ements
Ġf antasy
Ġpl acing
Ġsh orter
ĠAb d
Ġcut ting
ĠEd in
Ġannounce ment
Ġgu arant
Ġmag azines
Ġwalk ing
ĠCh ampions
Ġ10 4
Ġdon ated
it ively
Ġl ying
ann on
ĠAdminist ration
ĠL ib
enn ium
aut ical
ph one
Ġer r
Ġconn ecting
Ġhost s
Ġasp ect
ĠPak istan
Ġm emor
Ġon going
ĠSt u
Ġmag ic
Ã ¦
ĠC ov
he ars
Ġ17 3
Ġdiscuss ion
a is
Ġin g
ĠO ur
Ġed ited
ĠL en
aj a
ĠBrad man
Ġtal ent
ĠPortug uese
ĠÃĨ thel
Ġfun ny
Ġ186 0
Ġclos est
Ġins ects
Ġstrong est
ec ution
Ġcolle agues
Ġc ub
ĠS hip
Ġgl ac
Ġput ting
Ġtub es
h ous
f ts
Ġm al
Ġqual ified
Ġwithdraw al
as a
ĠAl ice
Ġland scape
Ġred e
Ġgat hered
Ġfor th
Ġdec ide
Ġbattle cru
Ġvol umes
Ġpred ict
Ġhyp othes
ĠDw ight
Ġident ify
Ġang le
ĠNC AA
Ġcollaps ed
à ¸
Ġsw itch
Ġcirc le
Ġindic ates
ĠTro phy
Ġchallen ged
ĠM ong
ĠG ene
ĠJ oy
Ġdes ert
vent h
ĠIs a
Ġmer ely
Ġgr ay
Ġfor g
Ġcou p
Ġsuppl ied
b ow
ĠAn c
Ġconf ront
Ġmark ets
Ġ189 3
od ge
Ġcap s
Ġwaters hed
on ium
ĠT ype
Ġbe am
ear ing
Ġpart ial
Ġexp osure
at ra
Ġl es
elt a
ĠFle ming
ĠMet eor
Ġdens ity
Ġneigh bour
Ġspec imen
ĠRes erve
ĠHon or
Ġconvent ional
ĠC hes
ĠD ub
ĠMar vel
enn a
Ġ189 6
Ġb are
Ġb rig
ĠM ission
ĠY ears
av el
Ġpl ain
Ġlim its
ĠP am
ann er
Ġdub bed
Ġsh ift
Ġsp ac
Ġhydro gen
ĠHamp shire
j oin
ag ger
Ġvis its
Ġcor ps
Ġconcent rated
igen ous
Ġmembers hip
ĠAf ghan
ĠOl iver
Ġfeed ing
Ġn avy
iet h
Ġann ually
Ġeduc ational
ĠEdin burgh
Ġc ock
Ġex ha
ĠSt ri
ĠB ak
Ġbe aring
ĠTh ose
Ġto pped
so ft
Ġprov ision
Ġse ized
Ġass embly
ĠF lying
Ġcl in
Ġpri ze
ĠT ob
ot al
oc y
ip er
Ġ12 7
Ġrang es
Ġt rough
ĠS omet
ir ates
ist a
ĠB eng
Ġ189 8
Ġattend ing
ather s
Ġmar ry
Ġpar ody
Ġemphas is
ĠMos c
Ġch ampions
Ġdu o
ĠVictor ian
ĠS ay
ĠN atural
ĠPr incip
ament al
ĠChart s
Ġleg it
Ã¼ r
Ġb acter
ĠT ig
h ard
ĠW here
Ġoff ense
Ġ35 0
Ġproduct ions
Ġinvestig ate
Ġ17 2
Ġdog s
Ġf urn
ar r
ĠBe gin
Ġweek ly
Ġbas in
ĠFin ally
uzz le
ĠP in
Ġtalk ing
Ġexerc ise
Ġan ime
ĠBe aut
Ġb one
Ġun less
Ġj ury
ĠMon te
ĠDemocr ats
Ġtick et
on ica
ĠL ist
ĠK ap
Ġres ol
ĠMe g
ĠPerson al
Ġ11 1
Ġpromot ional
Ġflood ed
ĠTurn er
Ġf ill
Ġb ond
ĠMay a
Ġcru c
ĠC elt
ass ador
ĠYork shire
Ġce ased
oy s
ĠRal ph
ter ior
Ġfort ress
Ġadvert ising
Ġemploy ment
Ġster e
ĠLl oyd
ĠM S
Ġreg ime
Ġpers ons
Ġbirth day
Ġportray al
ĠArgent ina
Ã °
er k
Ġunc le
ĠK o
port ed
ĠA x
ĠM and
Ġun com
Ġqu een
ĠOver all
Ġunderw ent
Ġatt itude
ris ing
Ġinv ent
ĠP ink
ĠO m
Ġsc attered
Ġout put
Ġco ff
ĠVill age
Ġphotograph s
Ġev al
Ġcons ervation
Ġsend ing
pl ed
ĠCon vention
Ġhit ting
ĠChristian ity
ay an
Ġball ad
Ġexperiment al
Ġassemb led
ĠBrother s
ĠT ak
Ġmat ure
Ġgu ide
Ġquestion ed
a ft
ra wn
Ġcomment ary
Ġoverw hel
ad ers
Ġdr inking
Ġb ishop
as hes
ov iÄĩ
Ġimag ery
Ġsoft ware
ĠL t
Ġex ternal
Ġ189 9
ĠJer ry
ĠCra ig
ĠH az
Ġend ors
Ġprov incial
Ġrepl ied
Ġter rain
Ġunc lear
ĠP rop
ĠK am
ĠBook s
Ġtransl ation
Ġagg reg
ĠChron icle
ĠF und
Ġout d
Ġprocl aim
h aw
Ġlaw yer
ĠPr im
ham mad
Ġswim ming
Ġw ire
Ġp apers
ic ations
Ġcl ock
h in
Ġcomp rom
olog ies
Ġthir teen
Ġliber al
Ġemp ire
ĠColl ins
Ġc ens
Ġtra il
Ġrepresent atives
rap y
ĠMar ge
Ġlaw su
Ġcous in
ĠC ad
Ġco at
ĠE ug
er r
id al
Ġst reak
Ġwa it
ers ed
Ġsh r
Ġbur ial
ĠQueens land
ĠAp oll
Ġmon aster
ĠFin land
Ġpict ures
Ġlov ed
Ġd uration
am as
ĠL ock
ĠAnd re
Ġacou stic
i oc
ĠGl en
Ġmov ies
Ġsl ave
Ġexper t
Ġdev ast
Ġpen et
Ġexclus ive
O K
Ġs ang
ĠG or
Ġstrong er
Ġelectric ity
Ġaccompany ing
Ġbran ches
Ġ10 8
ĠHow e
Ġsurrend ered
Ġarr ives
Ġd aughters
im m
Ġbe ats
Ġident ical
Ġreinforce ments
Ġc ad
am an
Ġten ure
ĠHard y
ĠP ad
ĠW ii
ens ed
ows ki
ĠSimilar ly
ĠBo at
ate ver
ĠNor folk
Ġsuccess ion
Ġreve al
Ġd read
pl ace
ĠJ un
pl er
Ġchar ter
ĠProt est
ĠHawai i
Ġre verse
ĠS le
ĠHer itage
Ġredu cing
Ġdestroy ing
Ġp ush
ri ors
Ġcomp onents
Ġ16 9
ric ts
ĠProfess or
Ġpric es
ro d
ĠS ign
ĠR ic
ĠJ ama
ell ation
ĠBur ton
ĠServ ices
Ġpre v
Ġtrad ing
ĠDon ald
ĠNich olas
Ġexclus ively
ĠD in
Ġcomp onent
Ġsc ar
Ġrec all
Ġmy st
ĠBel gian
er g
ill es
Ġfail ing
Ġsle ep
Ġsp aces
Ġcompet ing
Ġ185 0
Ġmechan ical
ĠCommun ist
Ġto mb
Ġgovern ments
ol en
Ġst ops
ĠD ak
Ġcounter p
Ġis ot
ib ilities
ey er
Ġqu ad
enes is
ĠRang ers
ĠBenn ett
Ġprecip itation
ĠC atherine
itar ian
ĠVinc ent
Ġat omic
ang el
Ġpol ar
Ġpo le
Ġre ward
ab e
Ġsl avery
Ġflow ers
Ġd ict
ĠC ricket
Ġobs c
ĠTra ining
Ġb anned
ĠTh under
Ġdevelop ers
ĠDav ies
ĠMed ical
Ġcent ers
Ġmin i
ĠEm my
Ġdev ices
Ġfoss il
c ase
he ll
on ian
Ġw ish
ĠD ram
